{"version": "1.0", "truncation": null, "padding": null, "added_tokens": [{"id": 248044, "content": "<|endoftext|>", "single_word": false, "lstrip": false, "rstrip": false, "normalized": false, "special": true}, {"id": 248045, "content": "<|im_start|>", "single_word": false, "lstrip": false, "rstrip": false, "normalized": false, "special": true}, {"id": 248046, "content": "<|im_end|>", "single_word": false, "lstrip": false, "rstrip": false, "normalized": false, "special": true}, {"id": 248047, "content": "<|object_ref_start|>", "single_word": false, "lstrip": false, "rstrip": false, "normalized": false, "special": true}, {"id": 248048, "content": "<|object_ref_end|>", "single_word": false, "lstrip": false, "rstrip": false, "normalized": false, "special": true}, {"id": 248049, "content": "<|box_start|>", "single_word": false, "lstrip": false, "rstrip": false, "normalized": false, "special": true}, {"id": 248050, "content": "<|box_end|>", "single_word": false, "lstrip": false, "rstrip": false, "normalized": false, "special": true}, {"id": 248051, "content": "<|quad_start|>", "single_word": false, "lstrip": false, "rstrip": false, "normalized": false, "special": true}, {"id": 248052, "content": "<|quad_end|>", "single_word": false, "lstrip": false, "rstrip": false, "normalized": false, "special": true}, {"id": 248053, "content": "<|vision_start|>", "single_word": false, "lstrip": false, "rstrip": false, "normalized": false, "special": true}, {"id": 248054, "content": "<|vision_end|>", "single_word": false, "lstrip": false, "rstrip": false, "normalized": false, "special": true}, {"id": 248055, "content": "<|vision_pad|>", "single_word": false, "lstrip": false, "rstrip": false, "normalized": false, "special": true}, {"id": 248056, "content": "<|image_pad|>", "single_word": false, "lstrip": false, "rstrip": false, "normalized": false, "special": true}, {"id": 248057, "content": "<|video_pad|>", "single_word": false, "lstrip": false, "rstrip": false, "normalized": false, "special": true}, {"id": 248058, "content": "<tool_call>", "single_word": false, "lstrip": false, "rstrip": false, "normalized": false, "special": false}, {"id": 248059, "content": "</tool_call>", "single_word": false, "lstrip": false, "rstrip": false, "normalized": false, "special": false}, {"id": 248060, "content": "<|fim_prefix|>", "single_word": false, "lstrip": false, "rstrip": false, "normalized": false, "special": false}, {"id": 248061, "content": "<|fim_middle|>", "single_word": false, "lstrip": false, "rstrip": false, "normalized": false, "special": false}, {"id": 248062, "content": "<|fim_suffix|>", "single_word": false, "lstrip": false, "rstrip": false, "normalized": false, "special": false}, {"id": 248063, "content": "<|fim_pad|>", "single_word": false, "lstrip": false, "rstrip": false, "normalized": false, "special": false}, {"id": 248064, "content": "<|repo_name|>", "single_word": false, "lstrip": false, "rstrip": false, "normalized": false, "special": false}, {"id": 248065, "content": "<|file_sep|>", "single_word": false, "lstrip": false, "rstrip": false, "normalized": false, "special": false}, {"id": 248066, "content": "<tool_response>", "single_word": false, "lstrip": false, "rstrip": false, "normalized": false, "special": false}, {"id": 248067, "content": "</tool_response>", "single_word": false, "lstrip": false, "rstrip": false, "normalized": false, "special": false}, {"id": 248068, "content": "<think>", "single_word": false, "lstrip": false, "rstrip": false, "normalized": false, "special": false}, {"id": 248069, "content": "</think>", "single_word": false, "lstrip": false, "rstrip": false, "normalized": false, "special": false}, {"id": 248070, "content": "<|audio_start|>", "single_word": false, "lstrip": false, "rstrip": false, "normalized": false, "special": true}, {"id": 248071, "content": "<|audio_end|>", "single_word": false, "lstrip": false, "rstrip": false, "normalized": false, "special": true}, {"id": 248072, "content": "<tts_pad>", "single_word": false, "lstrip": false, "rstrip": false, "normalized": false, "special": true}, {"id": 248073, "content": "<tts_text_bos>", "single_word": false, "lstrip": false, "rstrip": false, "normalized": false, "special": true}, {"id": 248074, "content": "<tts_text_eod>", "single_word": false, "lstrip": false, "rstrip": false, "normalized": false, "special": true}, {"id": 248075, "content": "<tts_text_bos_single>", "single_word": false, "lstrip": false, "rstrip": false, "normalized": false, "special": true}, {"id": 248076, "content": "<|audio_pad|>", "single_word": false, "lstrip": false, "rstrip": false, "normalized": false, "special": true}], "normalizer": {"type": "NFC"}, "pre_tokenizer": {"type": "Sequence", "pretokenizers": [{"type": "Split", "pattern": {"Regex": "(?i:'s|'t|'re|'ve|'m|'ll|'d)|[^\\r\\n\\p{L}\\p{N}]?[\\p{L}\\p{M}]+|\\p{N}| ?[^\\s\\p{L}\\p{M}\\p{N}]+[\\r\\n]*|\\s*[\\r\\n]+|\\s+(?!\\S)|\\s+"}, "behavior": "Isolated", "invert": false}, {"type": "ByteLevel", "add_prefix_space": false, "trim_offsets": false, "use_regex": false}]}, "post_processor": {"type": "ByteLevel", "add_prefix_space": false, "trim_offsets": false, "use_regex": false}, "decoder": {"type": "ByteLevel", "add_prefix_space": false, "trim_offsets": false, "use_regex": false}, "model": {"type": "BPE", "dropout": null, "unk_token": null, "continuing_subword_prefix": "", "end_of_word_suffix": "", "fuse_unk": false, "byte_fallback": false, "ignore_merges": false, "vocab": {"!": 0, "\"": 1, "#": 2, "$": 3, "%": 4, "&": 5, "'": 6, "(": 7, ")": 8, "*": 9, "+": 10, ",": 11, "-": 12, ".": 13, "/": 14, "0": 15, "1": 16, "2": 17, "3": 18, "4": 19, "5": 20, "6": 21, "7": 22, "8": 23, "9": 24, ":": 25, ";": 26, "<": 27, "=": 28, ">": 29, "?": 30, "@": 31, "A": 32, "B": 33, "C": 34, "D": 35, "E": 36, "F": 37, "G": 38, "H": 39, "I": 40, "J": 41, "K": 42, "L": 43, "M": 44, "N": 45, "O": 46, "P": 47, "Q": 48, "R": 49, "S": 50, "T": 51, "U": 52, "V": 53, "W": 54, "X": 55, "Y": 56, "Z": 57, "[": 58, "\\": 59, "]": 60, "^": 61, "_": 62, "`": 63, "a": 64, "b": 65, "c": 66, "d": 67, "e": 68, "f": 69, "g": 70, "h": 71, "i": 72, "j": 73, "k": 74, "l": 75, "m": 76, "n": 77, "o": 78, "p": 79, "q": 80, "r": 81, "s": 82, "t": 83, "u": 84, "v": 85, "w": 86, "x": 87, "y": 88, "z": 89, "{": 90, "|": 91, "}": 92, "~": 93, "\u00a1": 94, "\u00a2": 95, "\u00a3": 96, "\u00a4": 97, "\u00a5": 98, "\u00a6": 99, "\u00a7": 100, "\u00a8": 101, "\u00a9": 102, "\u00aa": 103, "\u00ab": 104, "\u00ac": 105, "\u00ae": 106, "\u00af": 107, "\u00b0": 108, "\u00b1": 109, "\u00b2": 110, "\u00b3": 111, "\u00b4": 112, "\u00b5": 113, "\u00b6": 114, "\u00b7": 115, "\u00b8": 116, "\u00b9": 117, "\u00ba": 118, "\u00bb": 119, "\u00bc": 120, "\u00bd": 121, "\u00be": 122, "\u00bf": 123, "\u00c0": 124, "\u00c1": 125, "\u00c2": 126, "\u00c3": 127, "\u00c4": 128, "\u00c5": 129, "\u00c6": 130, "\u00c7": 131, "\u00c8": 132, "\u00c9": 133, "\u00ca": 134, "\u00cb": 135, "\u00cc": 136, "\u00cd": 137, "\u00ce": 138, "\u00cf": 139, "\u00d0": 140, "\u00d1": 141, "\u00d2": 142, "\u00d3": 143, "\u00d4": 144, "\u00d5": 145, "\u00d6": 146, "\u00d7": 147, "\u00d8": 148, "\u00d9": 149, "\u00da": 150, "\u00db": 151, "\u00dc": 152, "\u00dd": 153, "\u00de": 154, "\u00df": 155, "\u00e0": 156, "\u00e1": 157, "\u00e2": 158, "\u00e3": 159, "\u00e4": 160, "\u00e5": 161, "\u00e6": 162, "\u00e7": 163, "\u00e8": 164, "\u00e9": 165, "\u00ea": 166, "\u00eb": 167, "\u00ec": 168, "\u00ed": 169, "\u00ee": 170, "\u00ef": 171, "\u00f0": 172, "\u00f1": 173, "\u00f2": 174, "\u00f3": 175, "\u00f4": 176, "\u00f5": 177, "\u00f6": 178, "\u00f7": 179, "\u00f8": 180, "\u00f9": 181, "\u00fa": 182, "\u00fb": 183, "\u00fc": 184, "\u00fd": 185, "\u00fe": 186, "\u00ff": 187, "\u0100": 188, "\u0101": 189, "\u0102": 190, "\u0103": 191, "\u0104": 192, "\u0105": 193, "\u0106": 194, "\u0107": 195, "\u0108": 196, "\u0109": 197, "\u010a": 198, "\u010b": 199, "\u010c": 200, "\u010d": 201, "\u010e": 202, "\u010f": 203, "\u0110": 204, "\u0111": 205, "\u0112": 206, "\u0113": 207, "\u0114": 208, "\u0115": 209, "\u0116": 210, "\u0117": 211, "\u0118": 212, "\u0119": 213, "\u011a": 214, "\u011b": 215, "\u011c": 216, "\u011d": 217, "\u011e": 218, "\u011f": 219, "\u0120": 220, "\u0121": 221, "\u0122": 222, "\u0123": 223, "\u0124": 224, "\u0125": 225, "\u0126": 226, "\u0127": 227, "\u0128": 228, "\u0129": 229, "\u012a": 230, "\u012b": 231, "\u012c": 232, "\u012d": 233, "\u012e": 234, "\u012f": 235, "\u0130": 236, "\u0131": 237, "\u0132": 238, "\u0133": 239, "\u0134": 240, "\u0135": 241, "\u0136": 242, "\u0137": 243, "\u0138": 244, "\u0139": 245, "\u013a": 246, "\u013b": 247, "\u013c": 248, "\u013d": 249, "\u013e": 250, "\u013f": 251, "\u0140": 252, "\u0141": 253, "\u0142": 254, "\u0143": 255, "\u0120\u0120": 256, "\u0120\u0120\u0120\u0120": 257, "in": 258, "\u0120t": 259, "\u0120\u0120\u0120\u0120\u0120\u0120\u0120\u0120": 260, "er": 261, "\u0120\u0120\u0120": 262, "on": 263, "\u0120a": 264, "re": 265, "at": 266, "st": 267, "en": 268, "or": 269, "\u0120th": 270, "\u010a\u010a": 271, "\u0120c": 272, "le": 273, "\u0120s": 274, "it": 275, "an": 276, "ar": 277, "al": 278, "\u0120the": 279, "\u0120p": 280, "\u0120f": 281, "ou": 282, "\u0120=": 283, "is": 284, "\u0120\u0120\u0120\u0120\u0120\u0120\u0120": 285, "ing": 286, "es": 287, "\u0120w": 288, "ion": 289, "ed": 290, "ic": 291, "\u0120b": 292, "\u0120d": 293, "et": 294, "\u0120m": 295, "\u0120o": 296, "\u0109\u0109": 297, "ro": 298, "as": 299, "el": 300, "ct": 301, "nd": 302, "\u0120in": 303, "\u0120h": 304, "ent": 305, "id": 306, "\u0120n": 307, "am": 308, "\u0120\u0120\u0120\u0120\u0120\u0120\u0120\u0120\u0120\u0120\u0120": 309, "\u0120to": 310, "\u0120re": 311, "--": 312, "\u0120{": 313, "\u0120of": 314, "om": 315, "im": 316, "\u010d\u010a": 317, "\u0120(": 318, "il": 319, "//": 320, "\u0120and": 321, "ur": 322, "se": 323, "\u0120l": 324, "ex": 325, "\u0120S": 326, "ad": 327, "\u0120\"": 328, "ch": 329, "ut": 330, "if": 331, "**": 332, "\u0120}": 333, "em": 334, "ol": 335, "\u0120\u0120\u0120\u0120\u0120\u0120\u0120\u0120\u0120\u0120\u0120\u0120\u0120\u0120\u0120\u0120": 336, "th": 337, "\u0120g": 338, "ig": 339, "iv": 340, "ce": 341, "od": 342, "\u0120v": 343, "ate": 344, "\u0120T": 345, "ag": 346, "ay": 347, "\u0120*": 348, "ot": 349, "us": 350, "\u0120C": 351, "\u0120st": 352, "\u0120I": 353, "un": 354, "ul": 355, "ue": 356, "\u0120A": 357, "ow": 358, "\u0120'": 359, "ew": 360, "\u0120<": 361, "ation": 362, "()": 363, "\u0120for": 364, "ab": 365, "ort": 366, "um": 367, "ame": 368, "\u0120is": 369, "pe": 370, "tr": 371, "ck": 372, "\u00e2\u0122": 373, "\u0120y": 374, "ist": 375, "----": 376, "he": 377, "\u0120e": 378, "lo": 379, "\u0120M": 380, "\u0120be": 381, "ers": 382, "\u0120on": 383, "\u0120con": 384, "ap": 385, "ub": 386, "\u0120P": 387, "\u0120\u0120\u0120\u0120\u0120\u0120\u0120\u0120\u0120\u0120\u0120\u0120\u0120\u0120\u0120": 388, "ass": 389, "int": 390, "ly": 391, "urn": 392, "\u0120$": 393, "av": 394, "port": 395, "ir": 396, "->": 397, "nt": 398, "ction": 399, "end": 400, "\u0120de": 401, "ith": 402, "out": 403, "turn": 404, "our": 405, "\u0120\u0120\u0120\u0120\u0120": 406, "lic": 407, "res": 408, "pt": 409, "==": 410, "\u0120this": 411, "\u0120wh": 412, "\u0120if": 413, "\u0120D": 414, "ver": 415, "age": 416, "\u0120B": 417, "ht": 418, "ext": 419, "=\"": 420, "\u0120that": 421, "****": 422, "\u0120R": 423, "\u0120it": 424, "ess": 425, "\u0120F": 426, "\u0120r": 427, "os": 428, "and": 429, "\u0120as": 430, "ect": 431, "ke": 432, "rom": 433, "\u0120//": 434, "con": 435, "\u0120L": 436, "(\"": 437, "qu": 438, "lass": 439, "\u0120with": 440, "iz": 441, "de": 442, "\u0120N": 443, "\u0120al": 444, "op": 445, "up": 446, "get": 447, "ile": 448, "\u0120an": 449, "ata": 450, "ore": 451, "ri": 452, "\u0120pro": 453, "\u0109\u0109\u0109\u0109": 454, "ter": 455, "ain": 456, "\u0120W": 457, "\u0120E": 458, "\u0120com": 459, "\u0120return": 460, "art": 461, "\u0120H": 462, "ack": 463, "import": 464, "ublic": 465, "\u0120or": 466, "est": 467, "ment": 468, "\u0120G": 469, "able": 470, "\u0120-": 471, "ine": 472, "ill": 473, "ind": 474, "ere": 475, "::": 476, "ity": 477, "\u0120+": 478, "\u0120tr": 479, "elf": 480, "ight": 481, "('": 482, "orm": 483, "ult": 484, "str": 485, "..": 486, "\",": 487, "\u0120you": 488, "ype": 489, "pl": 490, "\u0120new": 491, "\u0120j": 492, "\u0120\u0120\u0120\u0120\u0120\u0120\u0120\u0120\u0120\u0120\u0120\u0120\u0120\u0120\u0120\u0120\u0120\u0120\u0120": 493, "\u0120from": 494, "\u0120ex": 495, "\u0120O": 496, "ld": 497, "\u0120[": 498, "oc": 499, "\u0120se": 500, "\u0120le": 501, "--------": 502, ".s": 503, "',": 504, "ant": 505, "\u0120at": 506, "ase": 507, ".c": 508, "\u0120ch": 509, "</": 510, "ave": 511, "ang": 512, "\u0120are": 513, "\u0120int": 514, "\u00e2\u0122\u013b": 515, "_t": 516, "ert": 517, "ial": 518, "act": 519, "ive": 520, "ode": 521, "ost": 522, "\u0120class": 523, "\u0120not": 524, "og": 525, "ord": 526, "alue": 527, "all": 528, "ff": 529, "ont": 530, "ime": 531, "are": 532, "\u0120U": 533, "\u0120pr": 534, "\u0120:": 535, "ies": 536, "ize": 537, "ure": 538, "\u0120by": 539, "ire": 540, ".p": 541, "\u0120sh": 542, "ice": 543, "ast": 544, "ption": 545, "tring": 546, "ok": 547, "__": 548, "cl": 549, "##": 550, "\u0120he": 551, "ard": 552, ").": 553, "\u0120@": 554, "iew": 555, "\u0109\u0109\u0109": 556, "\u0120was": 557, "ip": 558, "this": 559, "\u0120u": 560, "\u0120The": 561, "ide": 562, "ace": 563, "ib": 564, "ac": 565, "rou": 566, "\u0120we": 567, "ject": 568, "\u0120public": 569, "ak": 570, "ve": 571, "ath": 572, "oid": 573, "\u0120=>": 574, "ust": 575, "que": 576, "\u0120res": 577, "))": 578, "'s": 579, "\u0120k": 580, "ans": 581, "yst": 582, "unction": 583, "********": 584, "\u0120i": 585, "\u0120us": 586, "pp": 587, "one": 588, "ail": 589, "====": 590, "name": 591, "\u0120str": 592, "\u0120/": 593, "\u0120&": 594, "ach": 595, "div": 596, "ystem": 597, "ell": 598, "\u0120have": 599, "err": 600, "ould": 601, "ull": 602, "pon": 603, "\u0120J": 604, "_p": 605, "\u0120==": 606, "ign": 607, "St": 608, "\u0120pl": 609, "form": 610, "put": 611, "ount": 612, "dd": 613, "ite": 614, "\u0120get": 615, "rr": 616, "ome": 617, "\u0120\u00e2\u0122": 618, "aram": 619, "cc": 620, "\u0120*/": 621, "ER": 622, "In": 623, "les": 624, "_s": 625, "ong": 626, "ie": 627, "\u0120can": 628, "\u0120V": 629, "erv": 630, "pr": 631, "\u0120un": 632, "row": 633, "ber": 634, "\u0120do": 635, "ll": 636, "\u0120el": 637, "\u0120self": 638, "ated": 639, "ary": 640, "\u0120.": 641, "']": 642, "ud": 643, "\u0120en": 644, "\u0120Th": 645, "\u0120\u0120\u0120\u0120\u0120\u0120\u0120\u0120\u0120\u0120\u0120\u0120\u0120\u0120\u0120\u0120\u0120\u0120\u0120\u0120\u0120\u0120\u0120": 646, "te": 647, "_c": 648, "uct": 649, "\u0120ab": 650, "ork": 651, ".get": 652, "\u0120#": 653, "aw": 654, "ress": 655, "ob": 656, "Name": 657, "app": 658, "['": 659, "\u0120all": 660, "ory": 661, "ition": 662, "ance": 663, "ear": 664, "\u0120cont": 665, "vent": 666, "ia": 667, "\u0120will": 668, "IN": 669, "\u0120\u0120\u0120\u0120\u0120\u0120\u0120\u0120\u0120": 670, "return": 671, "\u0120</": 672, "data": 673, "Re": 674, "ple": 675, "ild": 676, "ther": 677, "\u0120your": 678, "($": 679, "\u0120out": 680, "),": 681, "\u0120has": 682, "String": 683, "so": 684, "\u0120up": 685, "ax": 686, "\u0120def": 687, "\u0120bo": 688, "ge": 689, "alse": 690, "ON": 691, "per": 692, "ich": 693, "\u0120but": 694, "\u0120\u010a": 695, "\u0120_": 696, "_m": 697, "add": 698, "quest": 699, "odel": 700, "self": 701, "ery": 702, "ft": 703, "ens": 704, "////": 705, "ake": 706, ".C": 707, "\u0120go": 708, "\u0120function": 709, "\u0120K": 710, "ivate": 711, "\u0120im": 712, "\u0120const": 713, ".t": 714, "\u0120void": 715, "\u0120set": 716, "\u0120System": 717, "cri": 718, "li": 719, "\u0109if": 720, ".m": 721, "ally": 722, "set": 723, "ep": 724, "\u00e2\u0122\u013bs": 725, "bo": 726, "def": 727, "\u0120me": 728, "\u0120!": 729, "atch": 730, "\">": 731, "ec": 732, "\u0120In": 733, "ph": 734, "\u0120|": 735, "_f": 736, "\u0120var": 737, "ence": 738, "Id": 739, "ree": 740, "ink": 741, "lect": 742, "ug": 743, "eth": 744, "\u0120else": 745, "----------------": 746, "cont": 747, "\u0120so": 748, "atic": 749, "\u0120lo": 750, "pro": 751, "ton": 752, "ss": 753, "own": 754, "abel": 755, "oint": 756, "ous": 757, "eld": 758, "ST": 759, "The": 760, "\u0120\u0120\u0120\u0120\u0120\u0120\u0120\u0120\u0120\u0120\u0120\u0120\u0120\u0120\u0120\u0120\u0120\u0120\u0120\u0120\u0120\u0120\u0120\u0120\u0120\u0120\u0120\u0120\u0120\u0120\u0120\u0120": 761, "RE": 762, "\":": 763, "olor": 764, "tp": 765, "eg": 766, "key": 767, "ude": 768, "\u0120St": 769, "ound": 770, "\u0120ar": 771, "ener": 772, "ser": 773, "bject": 774, "essage": 775, "fer": 776, "\u0120more": 777, "ations": 778, "ents": 779, "\u0120his": 780, "\u0120they": 781, ".S": 782, "\u0120Y": 783, "use": 784, "ne": 785, "ish": 786, "old": 787, "_d": 788, "io": 789, "ield": 790, "\u0120per": 791, "Cont": 792, "ings": 793, "####": 794, "\u0120data": 795, "\u0120sa": 796, "ef": 797, "fo": 798, "\u0120one": 799, "eng": 800, "\u0120dis": 801, "AT": 802, "\u0120name": 803, "\u0120true": 804, "val": 805, "led": 806, ".f": 807, "\u0120ne": 808, "\u0120end": 809, ".T": 810, "cre": 811, "ark": 812, "log": 813, "Ex": 814, "error": 815, "_id": 816, "urre": 817, "ange": 818, "\u0120null": 819, "rray": 820, "\u0120my": 821, "pan": 822, "ict": 823, "ator": 824, "View": 825, "List": 826, "\u0109return": 827, "\u00e2\u0122\u013f": 828, "\u0120pre": 829, "\u0120x": 830, "clude": 831, "arg": 832, "ov": 833, ".h": 834, "\u0120>": 835, "\u0120their": 836, "')": 837, "irst": 838, "ick": 839, "gh": 840, "LE": 841, "OR": 842, "\u0120private": 843, "tem": 844, "\u010d\u010a\u010d\u010a": 845, "user": 846, "\u0120)": 847, "com": 848, ".A": 849, "\u0120id": 850, "read": 851, "\u0120who": 852, "_b": 853, "\u0120time": 854, "\u0120man": 855, "ry": 856, "========": 857, "roup": 858, "rop": 859, "public": 860, "vel": 861, "umber": 862, "ble": 863, "\u0120which": 864, "****************": 865, "\u0120any": 866, "\u0120false": 867, "we": 868, "\u0120value": 869, "\u0120li": 870, "\")": 871, "nder": 872, "gr": 873, "\u0120no": 874, "param": 875, "fig": 876, ".com": 877, "\u0120app": 878, "_l": 879, "ions": 880, ".D": 881, "\u0120Ch": 882, "\u0120about": 883, "\u0120add": 884, "\u0120su": 885, "\u0120string": 886, "ID": 887, "\u0120over": 888, "string": 889, ".l": 890, "ource": 891, "_C": 892, "\u0120qu": 893, "\u0120String": 894, "ca": 895, "SE": 896, "\u0120ro": 897, "sh": 898, "ual": 899, "Type": 900, "son": 901, "new": 902, "ern": 903, "\u0120ag": 904, "AR": 905, "].": 906, "\u0120?": 907, "ical": 908, "\u0120des": 909, "uth": 910, "ix": 911, "ays": 912, "\u0120type": 913, "'t": 914, "ault": 915, "\u0120inter": 916, "var": 917, ".b": 918, "\u0120part": 919, ".d": 920, "urrent": 921, "IT": 922, "EN": 923, "enc": 924, "(f": 925, "ra": 926, "value": 927, "cho": 928, "utton": 929, "ose": 930, "\u0120!=": 931, "ater": 932, "\u00c3\u00a9": 933, "reate": 934, "oll": 935, "pos": 936, "yle": 937, "ng": 938, "AL": 939, "using": 940, "ames": 941, "ates": 942, "ely": 943, "\u0120work": 944, "\u0120em": 945, "inal": 946, "\u0120sp": 947, "\u0120when": 948, ".set": 949, "\u0120\u0120\u0120\u0120\u0120\u0120": 950, "to": 951, "quire": 952, "indow": 953, "lement": 954, "pect": 955, "ash": 956, "[i": 957, "\u0120use": 958, ".F": 959, "pec": 960, "\u0120ad": 961, "ove": 962, "ception": 963, "ength": 964, "include": 965, "ader": 966, "\u0120\u0120\u0120\u0120\u0120\u0120\u0120\u0120\u0120\u0120\u0120\u0120\u0120\u0120\u0120\u0120\u0120\u0120\u0120\u0120\u0120\u0120\u0120\u0120\u0120\u0120\u0120": 967, "atus": 968, "Th": 969, "itle": 970, "rit": 971, "void": 972, "().": 973, "\u0120off": 974, "\u0120other": 975, "\u0120&&": 976, "ms": 977, "\u0120been": 978, "\u0120te": 979, "ml": 980, "co": 981, "nc": 982, "ervice": 983, "\u0120%": 984, "ann": 985, "ade": 986, "\u010a\u010a\u010a\u010a": 987, "lock": 988, "const": 989, "ponse": 990, "\u0120sup": 991, "++": 992, "date": 993, "\u0120acc": 994, "\u0120had": 995, "\u0120bu": 996, "\u0120Re": 997, "\u0120were": 998, "\u0120file": 999, "\u0120would": 1000, "\u0120\u00e2\u0122\u013e": 1001, "ven": 1002, "iss": 1003, "\u0120our": 1004, "class": 1005, "raw": 1006, "\u0120year": 1007, "Data": 1008, "\u0120val": 1009, "\u0120some": 1010, "fter": 1011, "ys": 1012, "\u0120///": 1013, "round": 1014, "view": 1015, "\u0120pe": 1016, "\u0120there": 1017, "\u0120said": 1018, "du": 1019, "of": 1020, "line": 1021, "/*": 1022, "duct": 1023, "\u0120her": 1024, "\u0120\u0120\u0120\u0120\u0120\u0120\u0120\u0120\u0120\u0120\u0120\u0120\u0120": 1025, "Res": 1026, "\u0120co": 1027, "\u0120comm": 1028, "ise": 1029, "min": 1030, "\u0120\u0120\u0120\u0120\u010a": 1031, "#include": 1032, "ethod": 1033, ".P": 1034, "ute": 1035, "\u0120ass": 1036, "Int": 1037, "ask": 1038, "loc": 1039, "\u0120like": 1040, "ody": 1041, "\u0120let": 1042, "load": 1043, "\u0120am": 1044, "rol": 1045, "\u0120gr": 1046, "yp": 1047, "\u0120also": 1048, "\u0120It": 1049, "url": 1050, "ific": 1051, "ors": 1052, "_P": 1053, "_n": 1054, "igh": 1055, "\u0120than": 1056, "Com": 1057, "AN": 1058, "UL": 1059, "ating": 1060, "\u0120This": 1061, "ref": 1062, "_S": 1063, "\u0120static": 1064, "roll": 1065, "\u0120just": 1066, "\u0120result": 1067, "ian": 1068, "idth": 1069, "\u0120them": 1070, "der": 1071, "reak": 1072, "Con": 1073, "://": 1074, "ule": 1075, "...": 1076, "arch": 1077, "ement": 1078, "\u0120<<": 1079, "ush": 1080, "ense": 1081, "arr": 1082, "\u0120into": 1083, "cess": 1084, "amp": 1085, "ied": 1086, "ument": 1087, "\u0120\\": 1088, "],": 1089, "wo": 1090, "als": 1091, "\u0120what": 1092, "anc": 1093, "Value": 1094, "='": 1095, "olum": 1096, "\u0120pos": 1097, "ages": 1098, "ayer": 1099, "\u0120sc": 1100, "ues": 1101, "_T": 1102, "\u0120list": 1103, "(s": 1104, "\u0120case": 1105, "Ch": 1106, "\u0109\u0109\u0109\u0109\u0109": 1107, "////////": 1108, "ponent": 1109, "\u0120z": 1110, "\u0120kn": 1111, "let": 1112, "DE": 1113, "red": 1114, "\u0120fe": 1115, "\u0120,": 1116, "(t": 1117, "\u0120first": 1118, "word": 1119, "\u0120import": 1120, "\u0120act": 1121, "\u0120char": 1122, "CT": 1123, "\u0120Tr": 1124, "ople": 1125, "={": 1126, "\u0109f": 1127, "ient": 1128, "cent": 1129, ".j": 1130, "lection": 1131, "\u0120only": 1132, "\u0120print": 1133, "mer": 1134, ".W": 1135, "ock": 1136, "\u0120--": 1137, "Text": 1138, "\u0120op": 1139, "ank": 1140, "\u0120its": 1141, "\u0120back": 1142, "[\"": 1143, "\u0120need": 1144, "\u0120cl": 1145, "\u0120sub": 1146, "\u0120la": 1147, "((": 1148, ".\"": 1149, "Object": 1150, "\u0120start": 1151, "file": 1152, "(self": 1153, "ner": 1154, "ey": 1155, "\u0120user": 1156, "\u0120ent": 1157, "\u0120Com": 1158, "its": 1159, "\u0120Con": 1160, "ouble": 1161, "ower": 1162, "item": 1163, "very": 1164, "\u0120We": 1165, "lick": 1166, "\u0120Q": 1167, "php": 1168, "ttp": 1169, "':": 1170, "ics": 1171, "\u0120under": 1172, ".L": 1173, ");": 1174, "ices": 1175, "\u0120reg": 1176, "\u0109public": 1177, "SS": 1178, "\u0120then": 1179, "reat": 1180, "ious": 1181, ".G": 1182, "ek": 1183, "irect": 1184, "heck": 1185, "cript": 1186, "ning": 1187, "\u0120Un": 1188, "\u0120may": 1189, "\u0120Wh": 1190, "Bo": 1191, "Item": 1192, "struct": 1193, ".st": 1194, "ream": 1195, "ible": 1196, "loat": 1197, "\u0120org": 1198, "und": 1199, "sum": 1200, "_in": 1201, "../": 1202, "_M": 1203, "\u0120how": 1204, "rite": 1205, "To": 1206, "ww": 1207, "\u0120people": 1208, "index": 1209, ".n": 1210, "http": 1211, "(m": 1212, "ector": 1213, "\u0120ind": 1214, "\u0120jav": 1215, "\u0120He": 1216, "_st": 1217, "ful": 1218, "ole": 1219, "\u0120should": 1220, "opy": 1221, "elp": 1222, "ier": 1223, "_name": 1224, "erson": 1225, "ION": 1226, "ote": 1227, "\u0120test": 1228, "\u0120bet": 1229, "rror": 1230, "ular": 1231, "\u00e3\u0122": 1232, "\u0120\u00d0": 1233, "bs": 1234, "ting": 1235, "\u0120make": 1236, "Tr": 1237, "\u0120after": 1238, "arget": 1239, "RO": 1240, "olumn": 1241, "rc": 1242, "_re": 1243, "define": 1244, "\u0120right": 1245, "right": 1246, "day": 1247, "\u0120long": 1248, "[]": 1249, "(p": 1250, "td": 1251, "cond": 1252, "\u0120Pro": 1253, "\u0120rem": 1254, "ptions": 1255, "vid": 1256, ".g": 1257, "\u0120ext": 1258, "\u0120__": 1259, "pace": 1260, "mp": 1261, "\u0120min": 1262, "stance": 1263, "air": 1264, "action": 1265, "wh": 1266, "type": 1267, "util": 1268, "ait": 1269, "<?": 1270, "IC": 1271, "text": 1272, "\u0120ph": 1273, "\u0120fl": 1274, ".M": 1275, "ccess": 1276, "br": 1277, "fore": 1278, "ersion": 1279, ".re": 1280, "ateg": 1281, "\u0120loc": 1282, "ins": 1283, "-s": 1284, "trib": 1285, "\u0120Int": 1286, "\u0120array": 1287, ",\"": 1288, "Pro": 1289, "(c": 1290, "ession": 1291, "\u0120she": 1292, "\"]": 1293, "aph": 1294, "\u0120exp": 1295, "erty": 1296, "\u0120Se": 1297, "\u0120par": 1298, "unc": 1299, "ET": 1300, "\u0120read": 1301, "print": 1302, "\u0120rel": 1303, "\u0120form": 1304, "\u0120dr": 1305, "Exception": 1306, "input": 1307, "\u0120trans": 1308, "########": 1309, "order": 1310, "By": 1311, "\u0120aw": 1312, "ities": 1313, "uff": 1314, "play": 1315, ".add": 1316, "\u0120\u00e2\u0122\u0135": 1317, "\u0120want": 1318, "\u0120comp": 1319, "ments": 1320, "\u0120||": 1321, "az": 1322, "be": 1323, "\u0120number": 1324, "\u0120require": 1325, "\u0120Ex": 1326, "\u0120col": 1327, "\u0120key": 1328, "ember": 1329, "\u0120two": 1330, "\u0120size": 1331, "\u0120where": 1332, "UT": 1333, "result": 1334, "\u0120\u0120\u0120\u0120\u0120\u0120\u0120\u0120\u0120\u0120\u0120\u0120\u0120\u0120\u0120\u0120\u0120\u0120\u0120\u0120\u0120\u0120\u0120\u0120\u0120\u0120\u0120\u0120\u0120\u0120\u0120": 1335, "ough": 1336, "orld": 1337, "ood": 1338, "uch": 1339, "ative": 1340, "ger": 1341, "arent": 1342, "\u0120/*": 1343, "\u0120arg": 1344, "\u0120while": 1345, "(this": 1346, "\u0120rec": 1347, "\u0120dif": 1348, "State": 1349, "\u0120spec": 1350, "ride": 1351, "_F": 1352, "\u0120look": 1353, "AM": 1354, "ility": 1355, "eter": 1356, "\u00e2\u0122\u013bt": 1357, "\u010a\u010a\u010a": 1358, "ayout": 1359, "--------------------------------": 1360, "ager": 1361, "\u0120could": 1362, "\u0120br": 1363, "ends": 1364, "ures": 1365, "\u0120know": 1366, "ets": 1367, "\u0120If": 1368, "\u0120Sh": 1369, ".w": 1370, "back": 1371, "\u0120ser": 1372, "\u0120+=": 1373, "\u0120fr": 1374, "\u0120hand": 1375, "Ind": 1376, "ULL": 1377, "Im": 1378, "\u0120most": 1379, "\u0120try": 1380, "\u0120now": 1381, "rough": 1382, "ackage": 1383, "\u0120him": 1384, "._": 1385, "ify": 1386, "\u0120break": 1387, "ren": 1388, "#define": 1389, "itt": 1390, "\u0120ap": 1391, "\u0109c": 1392, "(n": 1393, "\u0120You": 1394, "-m": 1395, "\u0120every": 1396, "ustom": 1397, "lient": 1398, "ocument": 1399, "cription": 1400, "Error": 1401, "-b": 1402, "\u00d0\u00be": 1403, "][": 1404, "trans": 1405, "\u0120point": 1406, "\u0120std": 1407, "\u0120fil": 1408, "Time": 1409, "\u0120mod": 1410, "\u0120->": 1411, "\u0120error": 1412, "ah": 1413, "\u0120text": 1414, "roller": 1415, "lose": 1416, "ql": 1417, "\u0120pol": 1418, "></": 1419, "\u0120show": 1420, "User": 1421, "ased": 1422, "\u0120find": 1423, "\u00d0\u00b0": 1424, "ED": 1425, "span": 1426, "enu": 1427, "\u0120current": 1428, "\u0120used": 1429, "cept": 1430, "clud": 1431, "\u0120play": 1432, "\u0120log": 1433, "ution": 1434, "fl": 1435, "\u0120see": 1436, "indows": 1437, "\u0120help": 1438, "\u0120these": 1439, "\u0120pass": 1440, "\u0120down": 1441, "\u0120even": 1442, "ason": 1443, "uild": 1444, "from": 1445, "(d": 1446, "\u0120bl": 1447, "label": 1448, "else": 1449, "\u00d0\u00b5": 1450, "\u0120(!": 1451, "ized": 1452, "(),": 1453, "\u0120ob": 1454, "\u0120item": 1455, "ump": 1456, "UR": 1457, "orn": 1458, "\u0120don": 1459, "Se": 1460, "man": 1461, "ample": 1462, "tn": 1463, "================": 1464, "He": 1465, "gram": 1466, "\u0120did": 1467, "wn": 1468, "_h": 1469, "iver": 1470, "\u0120sm": 1471, "\u0120through": 1472, "\u0120An": 1473, "che": 1474, "\u0120inv": 1475, "ouse": 1476, "\u0120es": 1477, "\u0120New": 1478, "export": 1479, "mary": 1480, "uto": 1481, "ler": 1482, "\u0120last": 1483, "\u0120event": 1484, "try": 1485, "\u00ef\u00bc": 1486, "ily": 1487, "igned": 1488, "ines": 1489, "ollow": 1490, "icense": 1491, "sole": 1492, "lear": 1493, "(int": 1494, "\u0120again": 1495, "\u0120high": 1496, "html": 1497, "Index": 1498, "uthor": 1499, "\u0120line": 1500, "Event": 1501, "_D": 1502, "\u0120does": 1503, "itial": 1504, "\u0120cr": 1505, "ars": 1506, "\u0120tem": 1507, "cause": 1508, "face": 1509, "\u0120`": 1510, "_A": 1511, "Button": 1512, "ature": 1513, "ected": 1514, "ES": 1515, "ister": 1516, "\u0109\u010a": 1517, "\u0120before": 1518, "ale": 1519, "other": 1520, "\u0120because": 1521, "roid": 1522, "\u0120ed": 1523, "ik": 1524, "reg": 1525, "\u0120De": 1526, "\u0120dist": 1527, "\u0120state": 1528, "\u0120cons": 1529, "rint": 1530, "att": 1531, "\u0120here": 1532, "ined": 1533, "\u0120final": 1534, "\u0120\"\"": 1535, "Key": 1536, "LO": 1537, "\u0120del": 1538, "pty": 1539, "thing": 1540, "\u0120And": 1541, "\u0120run": 1542, "\u0120X": 1543, "ym": 1544, ".app": 1545, "\u0120very": 1546, "ces": 1547, "_N": 1548, "ared": 1549, "ward": 1550, "list": 1551, "ited": 1552, "olog": 1553, "itch": 1554, "Box": 1555, "ife": 1556, "\u0120ac": 1557, "\u0120model": 1558, "\u0120mon": 1559, "\u0120way": 1560, "lete": 1561, "\u0120call": 1562, "\u0120att": 1563, "\u0120cal": 1564, "vert": 1565, "\u0120dec": 1566, "lease": 1567, "oun": 1568, "fr": 1569, "formation": 1570, "etail": 1571, "\u0120num": 1572, "aj": 1573, "query": 1574, "\u0120well": 1575, "\u0120object": 1576, "\u0120As": 1577, "\u0120years": 1578, "Color": 1579, "IS": 1580, "\u0120default": 1581, "Wh": 1582, "\u0120ins": 1583, "aint": 1584, "\u0120java": 1585, "\u0120sim": 1586, "\u0120Ar": 1587, "mon": 1588, "til": 1589, "):": 1590, "Set": 1591, "atter": 1592, "\u0120view": 1593, "\u0120pres": 1594, "array": 1595, "We": 1596, "At": 1597, "\u0120bel": 1598, "\u0120many": 1599, "Man": 1600, "ender": 1601, "\u0120being": 1602, "\u0120good": 1603, "\u0109\u0109\u0109\u0109\u0109\u0109": 1604, "ational": 1605, "ware": 1606, ".log": 1607, "\u0120using": 1608, "_B": 1609, "\u0120:=": 1610, "_w": 1611, "ists": 1612, "lish": 1613, "\u0120stud": 1614, "\u0120Al": 1615, "\u0120gu": 1616, "config": 1617, "uring": 1618, "time": 1619, "oken": 1620, "amespace": 1621, "\u0120request": 1622, "\u0120child": 1623, "\u0120\u00c3": 1624, "lob": 1625, "\u0120param": 1626, "\u0120echo": 1627, "function": 1628, "********************************": 1629, "ps": 1630, "Element": 1631, "alk": 1632, "lication": 1633, "by": 1634, "Size": 1635, "rawing": 1636, "\u0120person": 1637, "\u0120\u0120\u0120\u0120\u0120\u0120\u0120\u0120\u0120\u0120\u0120\u0120\u0120\u0120\u0120\u0120\u0120": 1638, "\\n": 1639, "object": 1640, "ince": 1641, "En": 1642, "File": 1643, "uf": 1644, "ffect": 1645, "AC": 1646, "\u0120style": 1647, "summary": 1648, "\u0120que": 1649, "_r": 1650, "\u0120($": 1651, "Model": 1652, "ident": 1653, "\u0120method": 1654, "IL": 1655, "ott": 1656, "less": 1657, "ING": 1658, "\u0120()": 1659, "\u0120expect": 1660, "ync": 1661, "package": 1662, "urs": 1663, "\u0120prot": 1664, "./": 1665, "pre": 1666, "ma": 1667, "\u0120sur": 1668, "\u0120found": 1669, "Info": 1670, "par": 1671, "imes": 1672, ".e": 1673, "ains": 1674, "\u0120post": 1675, "-d": 1676, "olean": 1677, "\u0120sl": 1678, "PE": 1679, "\u0120such": 1680, "select": 1681, "ainer": 1682, "\u0120think": 1683, "\u0120differ": 1684, ".r": 1685, "FF": 1686, "ool": 1687, "plate": 1688, "qual": 1689, "\u0120For": 1690, "\u0120much": 1691, "uc": 1692, "(new": 1693, "odule": 1694, "\u0120som": 1695, "\u0120http": 1696, "\u0120List": 1697, "\u0120count": 1698, "\u0120inst": 1699, "char": 1700, "mit": 1701, ".id": 1702, "aking": 1703, "\u0120gener": 1704, "px": 1705, "vice": 1706, "_data": 1707, "\u0120NULL": 1708, "idd": 1709, "\u00e3\u0122\u0124": 1710, "\u0120med": 1711, "org": 1712, "ider": 1713, "ache": 1714, "work": 1715, "\u0120check": 1716, "ween": 1717, "\u0120((": 1718, "the": 1719, "ants": 1720, "><": 1721, ".B": 1722, "-c": 1723, "\u0120open": 1724, "\u0120est": 1725, "\u0120\u0120\u0120\u0120\u0120\u0120\u0120\u0120\u010a": 1726, "\u0120next": 1727, "IM": 1728, "\u00d1\u0124": 1729, "OT": 1730, "\u00c3\u00b3": 1731, "\u0120follow": 1732, "content": 1733, "\u0120\u0120\u0120\u0120\u0120\u0120\u0120\u0120\u0120\u0120\u0120\u0120": 1734, "\u0120includ": 1735, "HE": 1736, "\u0120Res": 1737, "\u0120href": 1738, "\u00d0\u00b8": 1739, "\u0120car": 1740, "ypes": 1741, "image": 1742, "Un": 1743, "\u0120bool": 1744, "AD": 1745, "\u0120game": 1746, ".Form": 1747, "rows": 1748, "*/": 1749, "velop": 1750, ".Drawing": 1751, "\u0120path": 1752, "ision": 1753, "\u0120each": 1754, "\u0120Pl": 1755, "_type": 1756, "Path": 1757, "nection": 1758, "\u0120av": 1759, "').": 1760, "\u0120support": 1761, "ENT": 1762, "rem": 1763, "\").": 1764, "\u0120own": 1765, "\u0120cor": 1766, "count": 1767, "miss": 1768, "ually": 1769, "\u0120mem": 1770, "std": 1771, "ience": 1772, "search": 1773, "Form": 1774, "\u0120sex": 1775, "ename": 1776, "\u0120sign": 1777, "\u0120et": 1778, "\u0120\u0120\u0120\u0120\u0120\u0120\u0120\u0120\u0120\u0120": 1779, "','": 1780, "\u0120App": 1781, "\u0120those": 1782, "off": 1783, "\u0120err": 1784, "\u0120system": 1785, "\u0120best": 1786, "code": 1787, "\u0120same": 1788, "\u0120di": 1789, "uss": 1790, "\u0120create": 1791, "ather": 1792, "Array": 1793, ".in": 1794, "fe": 1795, "Service": 1796, "UN": 1797, "ats": 1798, "\u0120Z": 1799, "alth": 1800, "\u0120made": 1801, "true": 1802, "AB": 1803, "\u0120mark": 1804, "rid": 1805, "ified": 1806, "yn": 1807, "press": 1808, "\u0120group": 1809, "\u0120fin": 1810, "\u0120License": 1811, "Field": 1812, "eger": 1813, "\u0120world": 1814, "iness": 1815, "ty": 1816, "\u0120process": 1817, "(b": 1818, "\u0120cre": 1819, "arn": 1820, "ives": 1821, "\u0120main": 1822, "ideo": 1823, "_g": 1824, "AG": 1825, "valid": 1826, "img": 1827, "PI": 1828, "\u0120color": 1829, "\u0120report": 1830, "\u0120take": 1831, "rib": 1832, "OM": 1833, "\u0120day": 1834, "Request": 1835, "\u0120sk": 1836, "bers": 1837, "\u0109s": 1838, ".Add": 1839, "oot": 1840, "Image": 1841, "\u0120comple": 1842, "ollection": 1843, "\u0120top": 1844, "\u0120free": 1845, "AS": 1846, "De": 1847, "\u0120On": 1848, "IG": 1849, "eta": 1850, "Date": 1851, "\u0120action": 1852, "Over": 1853, "itor": 1854, "\u0120\u0120\u0120\u0120\u0120\u0120\u0120\u0120\u0120\u0120\u0120\u0120\u0120\u0120\u0120\u0120\u0120\u0120\u0120\u0120\u0120\u0120\u0120\u0120\u0120\u0120\u0120\u0120\u0120\u0120\u0120\u0120\u0120\u0120\u0120": 1855, "not": 1856, "\u0120index": 1857, "her": 1858, "icon": 1859, "On": 1860, "ivity": 1861, "mand": 1862, ".Windows": 1863, "OL": 1864, "\u0120real": 1865, "\u0120max": 1866, "land": 1867, "....": 1868, "raph": 1869, "\u0120build": 1870, "leg": 1871, "assword": 1872, "\u00e2\u0122\u00a6": 1873, "ook": 1874, "uck": 1875, "\u0120message": 1876, "test": 1877, "ivers": 1878, "\u0120input": 1879, "\u0120art": 1880, "\u0120between": 1881, "Get": 1882, "enter": 1883, "ground": 1884, "ene": 1885, "\u00c3\u00a1": 1886, ".length": 1887, "Node": 1888, "(i": 1889, "Class": 1890, "for": 1891, "\u0120\u00e2\u0122\u0136": 1892, "ten": 1893, "oin": 1894, "\u0120ke": 1895, "ui": 1896, "\u0120IN": 1897, "\u0120table": 1898, "sub": 1899, "\u0120Le": 1900, "\u0120head": 1901, "\u0120must": 1902, "////////////////": 1903, ".util": 1904, "Context": 1905, "\u0120order": 1906, "\u0120mov": 1907, "over": 1908, "\u0120contin": 1909, "\u0120say": 1910, "static": 1911, ".Text": 1912, "\u0120className": 1913, "pany": 1914, "\u0120ter": 1915, "head": 1916, "rg": 1917, "\u0120product": 1918, "This": 1919, ".\u00e2\u0122\u013f": 1920, "\u0120But": 1921, "loy": 1922, "\u0120double": 1923, "sg": 1924, "\u0120place": 1925, ".x": 1926, "message": 1927, "\u0120information": 1928, "private": 1929, "\u0120oper": 1930, "ced": 1931, "db": 1932, "\"></": 1933, "Param": 1934, "icle": 1935, "\u0120week": 1936, "\u0120prop": 1937, "table": 1938, "idget": 1939, "place": 1940, "Prop": 1941, "\u0120All": 1942, "els": 1943, "box": 1944, ".R": 1945, "\u0120To": 1946, "iter": 1947, "Sh": 1948, "uration": 1949, "older": 1950, "_list": 1951, "come": 1952, "\u0120sw": 1953, "ization": 1954, "\u0109for": 1955, "bl": 1956, "\u0120program": 1957, "(e": 1958, "ape": 1959, "check": 1960, ".Forms": 1961, "\u0120und": 1962, "ategory": 1963, "ags": 1964, "\u0120response": 1965, "US": 1966, "request": 1967, "\u0120struct": 1968, "escription": 1969, "\u0120code": 1970, "_H": 1971, "uffer": 1972, "\u0120without": 1973, "lobal": 1974, "Manager": 1975, "ilter": 1976, "PO": 1977, "\u0109this": 1978, "option": 1979, "\u0120sol": 1980, "\u0120===": 1981, "akes": 1982, "Controller": 1983, "Message": 1984, "\u0120ref": 1985, "ever": 1986, "\u0120So": 1987, "aining": 1988, ".append": 1989, "\u0120still": 1990, "\u0120provid": 1991, "\u0120assert": 1992, "med": 1993, "\u0120cap": 1994, "usiness": 1995, "\u0120rep": 1996, "tings": 1997, "ved": 1998, ".N": 1999, "api": 2000, "OD": 2001, "\u0120field": 2002, "iven": 2003, "oto": 2004, "\u00e2\u0122\u013e": 2005, "col": 2006, "(x": 2007, "ght": 2008, "Result": 2009, "Code": 2010, ".is": 2011, "link": 2012, "\u0120cour": 2013, "An": 2014, "\u0120team": 2015, "\u0109int": 2016, "ift": 2017, "\u0120second": 2018, "\u0120going": 2019, "\u0120range": 2020, "_E": 2021, "ness": 2022, "\u0120fam": 2023, "\u0120nil": 2024, "\u0120Cont": 2025, "ailable": 2026, "utes": 2027, "atab": 2028, "\u0120fact": 2029, "\u0120vis": 2030, "(&": 2031, "\u0120AN": 2032, "Al": 2033, "title": 2034, "\u0120android": 2035, "CE": 2036, "\\\"": 2037, "irt": 2038, "\u0120writ": 2039, "\u00d0\u00bd": 2040, "\u0109m": 2041, "ftware": 2042, "ond": 2043, "\u0120ret": 2044, "osition": 2045, "\u0120home": 2046, "\u0120left": 2047, "args": 2048, "meric": 2049, "\u0120direct": 2050, "oci": 2051, "Pl": 2052, "As": 2053, "ret": 2054, "ado": 2055, "Of": 2056, "chn": 2057, "\u0120Get": 2058, "ee": 2059, "ross": 2060, "();": 2061, "____": 2062, ".ph": 2063, "It": 2064, "oute": 2065, "\u0120exper": 2066, "chool": 2067, "www": 2068, "},": 2069, "\u0120allow": 2070, "\u0120\u00c2": 2071, "())": 2072, "size": 2073, "ism": 2074, "ai": 2075, "tract": 2076, "ane": 2077, "context": 2078, "\u0120beg": 2079, "CH": 2080, "\u0120page": 2081, "hip": 2082, "no": 2083, "core": 2084, "sp": 2085, "\u0120different": 2086, "iable": 2087, "\u0120Me": 2088, "_IN": 2089, "button": 2090, "\u0120Is": 2091, "ervices": 2092, "\u0120ca": 2093, "\u0120around": 2094, "App": 2095, "ration": 2096, "\u0120rece": 2097, "\u0120really": 2098, "\u0120image": 2099, "\u0120target": 2100, "\u0120dep": 2101, "opyright": 2102, "tra": 2103, "ingle": 2104, "ital": 2105, "Layout": 2106, "\u0120both": 2107, "Override": 2108, "arm": 2109, "=>": 2110, "aterial": 2111, "iled": 2112, "\u0120put": 2113, "Qu": 2114, "\u00d1\u0122": 2115, "ung": 2116, "map": 2117, "\u0109\u0109\u0109\u0109\u0109\u0109\u0109\u0109": 2118, "\u0120level": 2119, "Component": 2120, "book": 2121, "creen": 2122, "_RE": 2123, "\u0120config": 2124, "\u00e3\u0123": 2125, "Or": 2126, ".data": 2127, "\u0120document": 2128, "\",\"": 2129, "tribute": 2130, "ux": 2131, "Log": 2132, "ference": 2133, "post": 2134, "_e": 2135, "\u0120local": 2136, "andom": 2137, "assert": 2138, "Val": 2139, "lected": 2140, "ina": 2141, "atabase": 2142, "Add": 2143, "\u0120content": 2144, ".print": 2145, "signed": 2146, "ric": 2147, "\u0120fa": 2148, "-f": 2149, "ived": 2150, "\u0120quest": 2151, ".ex": 2152, "\u0120float": 2153, "\u0120develop": 2154, "Map": 2155, "ading": 2156, "\u0120poss": 2157, "UE": 2158, "namespace": 2159, "_O": 2160, "\u0109b": 2161, ".Get": 2162, ">(": 2163, "json": 2164, "etails": 2165, "\u0120too": 2166, "\u0120extends": 2167, "\u0120None": 2168, "\u0120fore": 2169, "(String": 2170, "format": 2171, "\u0120great": 2172, "inter": 2173, "cale": 2174, "\u00d1\u0123": 2175, "ron": 2176, "iving": 2177, "Ent": 2178, "ency": 2179, "xt": 2180, "oy": 2181, "\u0120month": 2182, "\u0120happ": 2183, "\u0120super": 2184, "bar": 2185, "default": 2186, "_de": 2187, "ords": 2188, "ln": 2189, "\u0120Ind": 2190, "ases": 2191, "\u0120title": 2192, "\u0120context": 2193, "oh": 2194, "-p": 2195, "Em": 2196, "\u0120met": 2197, "Test": 2198, "\u0120life": 2199, "_v": 2200, "\u0120US": 2201, "UI": 2202, "ocation": 2203, "md": 2204, "\u0120]": 2205, "sw": 2206, "\u0120incre": 2207, "script": 2208, "ential": 2209, "ways": 2210, ".de": 2211, "\u0120src": 2212, "\u0120catch": 2213, "\u0120Americ": 2214, "\u0120\u0120\u0120\u0120\u0120\u0120\u0120\u0120\u0120\u0120\u0120\u0120\u0120\u0120": 2215, "\u0120pay": 2216, "plit": 2217, "\u00e2\u0122\u0136": 2218, "\u0120coun": 2219, "obj": 2220, ".php": 2221, "\u0120change": 2222, "ething": 2223, "'re": 2224, "aster": 2225, "los": 2226, "lation": 2227, "\u0120\u0120\u010a": 2228, "Le": 2229, "\u00c3\u00a4": 2230, "({": 2231, "ready": 2232, "\u0120No": 2233, "\u0120position": 2234, "\u0120old": 2235, "\u0120book": 2236, "abled": 2237, "bug": 2238, "Hand": 2239, "isplay": 2240, "aving": 2241, "\u0120gover": 2242, "\u0120version": 2243, "System": 2244, "nect": 2245, "response": 2246, "Style": 2247, "Up": 2248, "angu": 2249, "\u0120three": 2250, "init": 2251, "ero": 2252, "\u0120law": 2253, "endif": 2254, "\u0120base": 2255, "email": 2256, "(l": 2257, "_V": 2258, "\u0120conf": 2259, "ATE": 2260, "\u0120during": 2261, "tes": 2262, "\u0120console": 2263, "\u0120Pr": 2264, "\u0120spe": 2265, "ves": 2266, "path": 2267, "ialog": 2268, "dition": 2269, "_to": 2270, "ards": 2271, "\u0120against": 2272, "etwork": 2273, "\u0120Ph": 2274, "_L": 2275, "cur": 2276, "imit": 2277, "With": 2278, "\u0120power": 2279, "ium": 2280, "\u0120wom": 2281, "left": 2282, "ources": 2283, "atri": 2284, "\u0120Im": 2285, "\u0120Man": 2286, "orth": 2287, "${": 2288, "quals": 2289, "ese": 2290, "_size": 2291, "\u0120iss": 2292, "otal": 2293, "-g": 2294, "ique": 2295, "rame": 2296, "\u0120width": 2297, "erg": 2298, ")(": 2299, "ittle": 2300, "TR": 2301, "\u0120They": 2302, "ences": 2303, "rl": 2304, "ons": 2305, "\u0120label": 2306, ".y": 2307, "-t": 2308, "update": 2309, "anel": 2310, "sc": 2311, ".to": 2312, "\u0120project": 2313, "\u00c3\u00bc": 2314, "\u0120element": 2315, "\u0120success": 2316, "\u0109\u0109\u010a": 2317, ".sh": 2318, "ram": 2319, "ched": 2320, "\u0120date": 2321, "\u0120tot": 2322, "_ST": 2323, "All": 2324, "ification": 2325, "\u0109var": 2326, "\u0120tri": 2327, "chem": 2328, "my": 2329, "\u0120big": 2330, "\u0120Ad": 2331, "\u0120At": 2332, "ots": 2333, "num": 2334, "Act": 2335, "\u0120map": 2336, "era": 2337, "cope": 2338, ".$": 2339, ",\u00e2\u0122\u013f": 2340, "\u0120pop": 2341, "\u0120few": 2342, "\u0120len": 2343, "uid": 2344, "eters": 2345, "ules": 2346, "\u00c3\u0143": 2347, "source": 2348, "https": 2349, "\u0120dem": 2350, "\u0120ear": 2351, "################": 2352, "\u0120match": 2353, "ories": 2354, "aces": 2355, "\u0120Cl": 2356, "\u0120node": 2357, "irc": 2358, "local": 2359, "unity": 2360, "\u0120another": 2361, "<<": 2362, "ogle": 2363, "\u0120sit": 2364, "ework": 2365, "TE": 2366, ".I": 2367, "NS": 2368, "ology": 2369, "ought": 2370, ".Cont": 2371, ">>": 2372, "\u0120care": 2373, "state": 2374, "\u0109private": 2375, "\u0120effect": 2376, "++)": 2377, "_file": 2378, "ending": 2379, "Line": 2380, "For": 2381, "ior": 2382, "\u0120Sc": 2383, "\u0120fun": 2384, ".Size": 2385, "\u0109else": 2386, "])": 2387, "start": 2388, "vious": 2389, "\u0120},": 2390, "ours": 2391, "\u0120leg": 2392, "\u0120service": 2393, "\u0120since": 2394, "iron": 2395, "Label": 2396, "\u0120non": 2397, "\u0120los": 2398, "iction": 2399, "\u0120full": 2400, "acter": 2401, "board": 2402, "gress": 2403, "\u0120turn": 2404, "ither": 2405, ".size": 2406, "\u0120body": 2407, "resh": 2408, "eturn": 2409, "(_": 2410, "yles": 2411, "ormal": 2412, "pi": 2413, "\u0120something": 2414, "!--": 2415, "uint": 2416, "\u0120produ": 2417, "\u0120stand": 2418, "\u0120proble": 2419, "\u0120available": 2420, "mt": 2421, "\u0120Bl": 2422, "\u0120...": 2423, "\u0120block": 2424, "Input": 2425, "\u0120keep": 2426, "Count": 2427, "open": 2428, "\u0120['": 2429, "\u0120throw": 2430, "uilder": 2431, "Action": 2432, "\u0120things": 2433, "True": 2434, "\u0120url": 2435, "\u0120Bo": 2436, "printf": 2437, "\u0120red": 2438, "js": 2439, ".create": 2440, "\u0120Or": 2441, "Status": 2442, "Instance": 2443, "\u0120control": 2444, "\u0120come": 2445, "\u0120custom": 2446, "location": 2447, "model": 2448, "\u0120\u010d\u010a": 2449, "\u0120source": 2450, "\u0120eas": 2451, ".out": 2452, "oney": 2453, "\u0120await": 2454, "\u0120partic": 2455, "AP": 2456, "ublish": 2457, "odes": 2458, "_pro": 2459, "ply": 2460, "riter": 2461, "\u0120prov": 2462, "\u0120mill": 2463, "HT": 2464, "\u0120chang": 2465, "\u0120ask": 2466, "\u0120\u0120\u0120\u0120\u0120\u0120\u0120\u0120\u0120\u0120\u0120\u0120\u0120\u0120\u0120\u0120\u0120\u0120\u0120\u0120\u0120": 2467, "\u0120output": 2468, "\u0120email": 2469, ".push": 2470, "ination": 2471, "atrix": 2472, "Table": 2473, "uccess": 2474, "\u0120\u0120\u0120\u0120\u0120\u0120\u0120\u0120\u0120\u0120\u0120\u0120\u0120\u0120\u0120\u0120\u0120\u0120\u0120\u0120\u0120\u0120\u0120\u0120\u0120\u0120\u0120\u0120\u0120\u0120\u0120\u0120\u0120\u0120\u0120\u0120\u0120\u0120\u0120": 2475, "\u0120disc": 2476, "([": 2477, "\u0120business": 2478, "height": 2479, ".html": 2480, "ta": 2481, "field": 2482, "\u0120required": 2483, "_R": 2484, "\u0120govern": 2485, "lex": 2486, ".,": 2487, "\u0120Set": 2488, "urch": 2489, "///": 2490, "ts": 2491, "af": 2492, "\u0120might": 2493, "istory": 2494, "Str": 2495, "\u0120never": 2496, "Response": 2497, "arse": 2498, "ada": 2499, "\u0120How": 2500, "\u0120*)": 2501, "\u0120;": 2502, "\u0120hard": 2503, "Ad": 2504, "\u0120intern": 2505, "used": 2506, "(data": 2507, "mod": 2508, "annel": 2509, "\u0120np": 2510, "ugg": 2511, "\u0120called": 2512, "body": 2513, "\u0120cho": 2514, "(r": 2515, "_set": 2516, "ird": 2517, "\u0120>=": 2518, "\u0120options": 2519, "\u0120Gener": 2520, "\u0120height": 2521, "Point": 2522, "You": 2523, "ety": 2524, "Click": 2525, "\u0120small": 2526, "\u0120ide": 2527, "\u0120access": 2528, "anguage": 2529, "\u0120protected": 2530, "\u0120job": 2531, "\u0120There": 2532, "Def": 2533, "\u0120address": 2534, "\u0120uint": 2535, "Not": 2536, "oo": 2537, "aps": 2538, "<div": 2539, "ained": 2540, "atur": 2541, "\u0120sum": 2542, "-w": 2543, "\u0120Date": 2544, "\u0120little": 2545, "\u0120fri": 2546, "YPE": 2547, "\u0120port": 2548, "eh": 2549, "pring": 2550, "_path": 2551, "\u0120status": 2552, "aim": 2553, "bool": 2554, "\u0120appe": 2555, "\u0120os": 2556, ".name": 2557, "ension": 2558, "_G": 2559, "\u0120update": 2560, "Config": 2561, "aff": 2562, "ERR": 2563, "\u0120<=": 2564, "ately": 2565, "#if": 2566, "uction": 2567, "\u0120Te": 2568, "\u0120link": 2569, "\u0120User": 2570, ".find": 2571, ".org": 2572, "me": 2573, "\u0120given": 2574, "Out": 2575, "#endif": 2576, "\u0120better": 2577, "Page": 2578, "\u0120feel": 2579, "enn": 2580, "ML": 2581, "\u0120already": 2582, "\u0120including": 2583, "oogle": 2584, "ru": 2585, "ically": 2586, "prop": 2587, "lean": 2588, "outer": 2589, "\u0120always": 2590, "ording": 2591, "If": 2592, "orage": 2593, "\u0120parent": 2594, "vis": 2595, "\u0109\u0109\u0109\u0109\u0109\u0109\u0109": 2596, "\u0120got": 2597, "stand": 2598, "\u0120less": 2599, "/s": 2600, "\u0120Ass": 2601, "apt": 2602, "ired": 2603, "\u0120Add": 2604, "\u0120account": 2605, "ploy": 2606, "\u0120der": 2607, "resent": 2608, "\u0120lot": 2609, "\u0120valid": 2610, "\u0109d": 2611, "\u0120bit": 2612, "ponents": 2613, "\u0120following": 2614, "_ex": 2615, "SON": 2616, "\u0120sure": 2617, "ocial": 2618, "\u0120prom": 2619, "erties": 2620, "header": 2621, ".pro": 2622, "\u0120boolean": 2623, "\u0120search": 2624, "ken": 2625, "\u0120orig": 2626, "\u0120er": 2627, "Ed": 2628, "EM": 2629, "aut": 2630, "ling": 2631, "ality": 2632, "ById": 2633, "bed": 2634, "\u0109case": 2635, "ether": 2636, "posit": 2637, "\u0120invest": 2638, "\u0120OR": 2639, "\u0120says": 2640, "mission": 2641, "AME": 2642, "\u0120temp": 2643, "oad": 2644, "\u0120rest": 2645, "info": 2646, "\u0120interest": 2647, "Arg": 2648, "\u0120perform": 2649, "pons": 2650, "\u0120View": 2651, "\u0120ver": 2652, "lib": 2653, "(const": 2654, "Util": 2655, "Listener": 2656, "arge": 2657, "\u0120mult": 2658, "\u0120die": 2659, "\u0120site": 2660, "../../": 2661, "EL": 2662, "\u0120values": 2663, "pen": 2664, "No": 2665, "icro": 2666, "\u0120beh": 2667, "\u0120'./": 2668, "acy": 2669, "rec": 2670, "()->": 2671, "\u0109\u0120\u0120\u0120": 2672, "\"))": 2673, "Content": 2674, "_W": 2675, "plement": 2676, "\u0120won": 2677, "\u0120video": 2678, "adi": 2679, "point": 2680, "%%": 2681, "\u0120gl": 2682, "erved": 2683, "viron": 2684, "IF": 2685, "uted": 2686, "\u00e3\u0125": 2687, "'m": 2688, "\u0120cert": 2689, "\u0120prof": 2690, "\u0120cell": 2691, "ari": 2692, "\u0120player": 2693, "ais": 2694, "\u0120cost": 2695, "\u0120hum": 2696, "(R": 2697, "\u0120offic": 2698, "ks": 2699, ".text": 2700, "atures": 2701, "\u0120total": 2702, "ope": 2703, "\u0120stat": 2704, "UM": 2705, "\u0120load": 2706, "ights": 2707, "\u0120clear": 2708, "uro": 2709, "\u0120techn": 2710, "upport": 2711, "IR": 2712, "\u0120row": 2713, "\u0120seem": 2714, "\u0120q": 2715, "\u0120short": 2716, "\u0120Not": 2717, "ipp": 2718, "Group": 2719, "section": 2720, "max": 2721, "irl": 2722, "\u0120override": 2723, "\u0120company": 2724, "\u0120done": 2725, "\u0120gre": 2726, ".Re": 2727, "\u0120belie": 2728, "rist": 2729, "\u0120health": 2730, "ANT": 2731, "\u0120Be": 2732, ".value": 2733, "\u0120Gr": 2734, "ottom": 2735, "\u0120args": 2736, "PT": 2737, "status": 2738, "func": 2739, "uments": 2740, "-h": 2741, "Number": 2742, "\u0120Log": 2743, "erver": 2744, "ament": 2745, "\u0120obj": 2746, "inc": 2747, "\u0120children": 2748, "icy": 2749, "IZ": 2750, "ands": 2751, "ably": 2752, "\u0120distrib": 2753, "\u0120cur": 2754, "erial": 2755, "\u0120days": 2756, "reated": 2757, "rect": 2758, "-l": 2759, "irm": 2760, "idden": 2761, "omb": 2762, "\u0120initial": 2763, ".js": 2764, "\u0120\u00e2": 2765, "Query": 2766, "\u0120online": 2767, "imal": 2768, ".con": 2769, "au": 2770, "Url": 2771, "control": 2772, "irection": 2773, "\u0120instance": 2774, "ORT": 2775, "\u0120Fr": 2776, "where": 2777, "\u0120javax": 2778, "\u0120organ": 2779, "apter": 2780, "\u0120reason": 2781, "options": 2782, "\u0120Mar": 2783, "(a": 2784, "\u0120within": 2785, "ODE": 2786, "_DE": 2787, "admin": 2788, "ended": 2789, "\u0120design": 2790, "\u0120Data": 2791, "une": 2792, "\u0120File": 2793, "root": 2794, "\u0120cent": 2795, "\u0120arr": 2796, "_add": 2797, "len": 2798, "page": 2799, ",'": 2800, "_str": 2801, "\u0120bro": 2802, "ability": 2803, "outh": 2804, "/c": 2805, "pose": 2806, "irtual": 2807, "earch": 2808, "_url": 2809, "argin": 2810, "Http": 2811, "\u0120school": 2812, "ava": 2813, "\u0120consider": 2814, ".label": 2815, "\u0120Array": 2816, "web": 2817, "opt": 2818, ".println": 2819, "ulation": 2820, "\u0120func": 2821, "PL": 2822, "\u0120\"\\": 2823, "\u0120Text": 2824, "actory": 2825, "(function": 2826, "null": 2827, "\u0120eng": 2828, "down": 2829, "\u0120include": 2830, "\u0120En": 2831, "\u0120Dr": 2832, "\u0120db": 2833, "!!": 2834, "side": 2835, "\u0120init": 2836, "quired": 2837, "\u0120She": 2838, "Column": 2839, "react": 2840, "\u0120ann": 2841, "\u0120stop": 2842, "\u0120later": 2843, "\u0120That": 2844, "ention": 2845, "df": 2846, "UG": 2847, "ILE": 2848, "\u0120client": 2849, "raft": 2850, "ffer": 2851, "POST": 2852, "elper": 2853, "\u0120love": 2854, "quote": 2855, "oud": 2856, "\u0120json": 2857, "\u0120able": 2858, "\u0120men": 2859, "AX": 2860, "\u0120Copyright": 2861, "\u00c3\u00b6": 2862, "avig": 2863, "req": 2864, "Client": 2865, ".Com": 2866, "erc": 2867, "ilt": 2868, "pecial": 2869, "_com": 2870, "room": 2871, ".Name": 2872, "\u0120give": 2873, "amb": 2874, "ike": 2875, "\u0120condition": 2876, "client": 2877, "ators": 2878, ":\"": 2879, "\u0120copy": 2880, "uture": 2881, "iversity": 2882, "ernal": 2883, "{{": 2884, "\u0120Can": 2885, "ounc": 2886, "do": 2887, "\u0120occ": 2888, "\u0120appro": 2889, "thers": 2890, "ze": 2891, "\u0120either": 2892, "\u0120Fl": 2893, "\u0120important": 2894, "\u0120lead": 2895, "attr": 2896, "ART": 2897, "Equal": 2898, "\u0120da": 2899, "etch": 2900, "entity": 2901, "\u0120family": 2902, "adding": 2903, "\u0120option": 2904, "\u0120exist": 2905, "ica": 2906, "\u0120Object": 2907, "'ve": 2908, "vers": 2909, "itional": 2910, "output": 2911, "\u0120True": 2912, "\u0120OF": 2913, "_time": 2914, "\u0120offer": 2915, "HER": 2916, "egin": 2917, "\"\"": 2918, "\u0120water": 2919, "\u0120che": 2920, "\u0120My": 2921, "ored": 2922, "\u0120step": 2923, "ances": 2924, "CK": 2925, "AY": 2926, "\u00e0\u00b8": 2927, "struction": 2928, "(C": 2929, "ouch": 2930, "Stream": 2931, "active": 2932, "ama": 2933, "Entity": 2934, "product": 2935, "\u0120government": 2936, "\u0120ID": 2937, "ajor": 2938, "And": 2939, "\u0120display": 2940, "\u00d0\u00bb": 2941, "\u0120times": 2942, "\u0120four": 2943, "\u0120far": 2944, "\u0120present": 2945, "\u0120NS": 2946, "uest": 2947, "\u0120bas": 2948, "echo": 2949, "child": 2950, "ifier": 2951, "Handler": 2952, "\u0120lib": 2953, "Property": 2954, "translation": 2955, "\u0120room": 2956, "\u0120once": 2957, "\u0120[]": 2958, "center": 2959, "================================": 2960, "\u0120results": 2961, "\u0120continue": 2962, "\u0120talk": 2963, "_get": 2964, "\u0120grow": 2965, ".sw": 2966, "eb": 2967, "\u0120Public": 2968, "OP": 2969, "ecute": 2970, "ols": 2971, "\u0120**": 2972, "\u0120mass": 2973, "ured": 2974, ".class": 2975, "omic": 2976, "\u0120mean": 2977, "ips": 2978, "\u0120aut": 2979, "\u0120until": 2980, "\u0120market": 2981, "\u0120area": 2982, "uit": 2983, "\u0120length": 2984, "\u0120With": 2985, "structor": 2986, "event": 2987, "\"><": 2988, "\u0120Sp": 2989, "IV": 2990, "\u0120mus": 2991, "iff": 2992, "\u0120kind": 2993, "author": 2994, "ounds": 2995, "mb": 2996, "_key": 2997, "width": 2998, "pository": 2999, "\u0120light": 3000, "uk": 3001, "Row": 3002, "ohn": 3003, "alf": 3004, "vironment": 3005, "apper": 3006, "ollections": 3007, "\u0120side": 3008, "_info": 3009, "\u0120example": 3010, "imary": 3011, "\u0120wr": 3012, "\u0120camp": 3013, "cribe": 3014, "\"/": 3015, "\u0120miss": 3016, "way": 3017, "\u0120based": 3018, "\u0120plan": 3019, "Vis": 3020, "omain": 3021, "unk": 3022, "\u0120away": 3023, "UP": 3024, "<T": 3025, "OS": 3026, "iod": 3027, "\u0120Mon": 3028, "\u00e2\u0122\u013bre": 3029, "\u0120lik": 3030, "\u00c3\u00a7": 3031, "ively": 3032, ".v": 3033, "imer": 3034, "izer": 3035, "Sub": 3036, "\u0120button": 3037, "\u0120Up": 3038, "\u0120experience": 3039, "CL": 3040, "\u0120render": 3041, "_value": 3042, "\u0120near": 3043, "URL": 3044, "alt": 3045, "\u0120country": 3046, "ibility": 3047, "ead": 3048, "\u0120author": 3049, "\u0120specific": 3050, "base": 3051, "(name": 3052, "ones": 3053, "\u0120Do": 3054, "\u0120along": 3055, "year": 3056, "\u0120express": 3057, ".'": 3058, "env": 3059, "\u0120begin": 3060, "\u0120software": 3061, "\u0120imp": 3062, "\u0120win": 3063, "\u00c3\u00b3n": 3064, "\u0120thing": 3065, "Trans": 3066, "\u0120THE": 3067, "\u0120<?": 3068, "\u0120why": 3069, "\u0120doesn": 3070, "ij": 3071, "ging": 3072, "\u0109g": 3073, "\u0120single": 3074, "offset": 3075, "arning": 3076, "ograph": 3077, "ley": 3078, "_count": 3079, "\u0120anal": 3080, "create": 3081, "/m": 3082, "\u0120Reg": 3083, "unch": 3084, "=$": 3085, "isk": 3086, "\u0120rights": 3087, "(M": 3088, "aper": 3089, ".model": 3090, "\u0120po": 3091, "empty": 3092, "artment": 3093, "\u0120ant": 3094, "\u0120When": 3095, "\u0120women": 3096, "\u0120Ed": 3097, "\u0120season": 3098, "\u0120dest": 3099, "\u00c3\u00a3": 3100, "(h": 3101, "\u0120possible": 3102, "\u0120sever": 3103, "\u0120btn": 3104, "\u0120didn": 3105, "\u0120sent": 3106, "\u0120enc": 3107, "\u0120command": 3108, "_x": 3109, "\u0120recent": 3110, "olution": 3111, "vector": 3112, "\u0120By": 3113, "\u0120May": 3114, "\u0120Act": 3115, "\u00bb\u00bf": 3116, "\u0120money": 3117, "INT": 3118, "bsite": 3119, "\u0109p": 3120, "\u00ef\u00bb\u00bf": 3121, "sl": 3122, "attern": 3123, "\u0120Class": 3124, "\u0120told": 3125, "udio": 3126, "current": 3127, "\u0120equ": 3128, "\u0120auto": 3129, "\u0120State": 3130, "da": 3131, "msg": 3132, "\u0120working": 3133, "\u0120query": 3134, "\u0120Br": 3135, "\u0120window": 3136, "auth": 3137, "only": 3138, "\u0109t": 3139, "\u0120least": 3140, "agn": 3141, "\u0120expl": 3142, "itter": 3143, "aring": 3144, "\u0120column": 3145, "\u0120General": 3146, "\":\"": 3147, "eral": 3148, "rior": 3149, "\u0120record": 3150, "IB": 3151, "EX": 3152, "\u0120dat": 3153, "\u0120making": 3154, "ued": 3155, "\u0120Car": 3156, "emp": 3157, "\".": 3158, "\u0120Med": 3159, "\u0120close": 3160, "\u0120percent": 3161, "\u0120past": 3162, "(g": 3163, ":(": 3164, "\u0120write": 3165, "\u0120move": 3166, "\u0120pat": 3167, "Control": 3168, ".To": 3169, "\u0120vi": 3170, "inate": 3171, "'ll": 3172, "aged": 3173, "Null": 3174, "\u0120special": 3175, "IZE": 3176, "\u0120city": 3177, "\u0120Eng": 3178, "ixed": 3179, "inary": 3180, "py": 3181, "\u0120eff": 3182, "ario": 3183, "\u0120tell": 3184, "avor": 3185, "\u0120select": 3186, "level": 3187, "imum": 3188, "oper": 3189, "Builder": 3190, "IP": 3191, "esc": 3192, "\u0120font": 3193, "\u0120Am": 3194, "ished": 3195, "ills": 3196, "Inter": 3197, "OW": 3198, "\u0120course": 3199, "\u0120late": 3200, "iddle": 3201, "\u0120amount": 3202, "\u0120async": 3203, "ino": 3204, "cul": 3205, "\u0120\u00ec": 3206, "andle": 3207, "_user": 3208, "\u0120ben": 3209, "\u0120Cal": 3210, "\u0120$_": 3211, "\u0120Rep": 3212, "\u0120enough": 3213, "Token": 3214, ".user": 3215, "(j": 3216, "Sc": 3217, "Width": 3218, "now": 3219, "atform": 3220, "\u0120looking": 3221, "\u0120hold": 3222, "Module": 3223, "ITY": 3224, "vo": 3225, "ison": 3226, ".Data": 3227, "yc": 3228, "\u0120pot": 3229, "\u0120Trump": 3230, "idual": 3231, "ides": 3232, "rt": 3233, "\u0120property": 3234, "\u0120\u0120\u0120\u0120\u0120\u0120\u0120\u0120\u0120\u0120\u0120\u0120\u0120\u0120\u0120\u0120\u0120\u0120\u0120\u0120\u0120\u0120\u0120\u0120\u0120\u0120\u0120\u0120\u0120\u0120\u0120\u0120\u0120\u0120\u0120\u0120\u0120\u0120\u0120\u0120\u0120\u0120\u0120": 3235, "amework": 3236, "go": 3237, "\u0120low": 3238, "\u0120para": 3239, "\u0120price": 3240, "ury": 3241, "\u0120today": 3242, "roy": 3243, "\u0120'/": 3244, "\u0120polit": 3245, "\u0120''": 3246, "ymb": 3247, "Ph": 3248, "\u0120adv": 3249, "\u0120attack": 3250, "\u0120Ste": 3251, "ROM": 3252, "ana": 3253, "\u0120means": 3254, "\u0120story": 3255, "ids": 3256, "aken": 3257, "\u0120meet": 3258, "\u0120mom": 3259, "\u0120\u00e2\u0122\u013a": 3260, "\u0120?>": 3261, "\u0120den": 3262, "obile": 3263, "change": 3264, "\u0120\u0120\u0120\u0120\u0120\u0120\u0120\u0120\u0120\u0120\u0120\u0120\u010a": 3265, "ici": 3266, "na": 3267, "\u0120Form": 3268, "\u0120sort": 3269, "Select": 3270, "pare": 3271, "\u0120thought": 3272, "_con": 3273, "\u0120task": 3274, "ocus": 3275, "\u0120DE": 3276, "\u0120Min": 3277, "\u0120opt": 3278, "\u0109break": 3279, "umer": 3280, "KE": 3281, "then": 3282, "\u0120det": 3283, "\u0120Test": 3284, "ports": 3285, "\u0120review": 3286, "('/": 3287, "move": 3288, "\u0120switch": 3289, "ERT": 3290, "patch": 3291, "annot": 3292, "\u00e3\u0124": 3293, "\u0120above": 3294, "itive": 3295, "\u0120question": 3296, "\u0120Qu": 3297, "gle": 3298, "\u0120word": 3299, "\u0120provide": 3300, "\u0120Return": 3301, "\u0120research": 3302, "\u00c3\u00a3o": 3303, "ustr": 3304, "\u0120publish": 3305, "chema": 3306, "}}": 3307, "\u0120CON": 3308, "-in": 3309, "allback": 3310, "\u0120cover": 3311, "\\\\": 3312, "color": 3313, "\u0120IS": 3314, "\u0120whether": 3315, "imate": 3316, "isc": 3317, "Bar": 3318, "\u0120div": 3319, "Be": 3320, "ourn": 3321, "\u0120having": 3322, "lem": 3323, "player": 3324, "abs": 3325, "amera": 3326, "ney": 3327, "\u0120exc": 3328, "gether": 3329, "plied": 3330, "ao": 3331, "[$": 3332, "\u0120++": 3333, "ipe": 3334, "show": 3335, "/d": 3336, "[:": 3337, "agement": 3338, "lev": 3339, "_ID": 3340, "rary": 3341, "ades": 3342, "_se": 3343, "ause": 3344, "\u0120employ": 3345, "\u0120fre": 3346, "\u0120'@": 3347, "\u0120complet": 3348, "\u0120large": 3349, "ral": 3350, "\\x": 3351, "\u0120fac": 3352, "<String": 3353, "\u0120created": 3354, "uper": 3355, ".state": 3356, "\u0120host": 3357, "eneric": 3358, "/b": 3359, "(!": 3360, "while": 3361, "ias": 3362, "BUG": 3363, "\u0120role": 3364, "Reg": 3365, "\u0120Color": 3366, "Start": 3367, "\u0120porn": 3368, "top": 3369, "\u0120web": 3370, "\u0120dev": 3371, "\u0120deal": 3372, "Integer": 3373, "position": 3374, ".on": 3375, "\u0120(\"": 3376, "\u0120problem": 3377, "sv": 3378, "\u0120press": 3379, "ABLE": 3380, "ATION": 3381, "\u0120See": 3382, "anch": 3383, "\u0120though": 3384, "leep": 3385, "\u0120<!--": 3386, "\u0120points": 3387, "\u0120\u0120\u0120\u0120\u0120\u0120\u0120\u0120\u0120\u0120\u0120\u0120\u0120\u0120\u0120\u0120\u0120\u0120\u0120\u0120\u0120\u0120\u0120\u0120\u0120": 3388, ".J": 3389, "\u0120::": 3390, "ptr": 3391, "DB": 3392, ".png": 3393, "node": 3394, "soft": 3395, "pond": 3396, "\u0120ever": 3397, "----------------------------------------------------------------": 3398, "Menu": 3399, "('#": 3400, "\u0120services": 3401, "pg": 3402, "params": 3403, "\u0120actually": 3404, "\u0120\"/": 3405, "Empty": 3406, "Method": 3407, "\u0120ident": 3408, "unic": 3409, "\u0120million": 3410, "\u0120aff": 3411, "style": 3412, "\u0120conc": 3413, "ios": 3414, "ignment": 3415, "ULT": 3416, "Pr": 3417, "\u0120understand": 3418, "uary": 3419, "\u0120happen": 3420, "\u0120server": 3421, "\u0120Co": 3422, "SC": 3423, "\u0120les": 3424, "\u0120files": 3425, "Grid": 3426, "sql": 3427, "\u0120often": 3428, "\u0120info": 3429, "_tr": 3430, "src": 3431, "ony": 3432, "\u0120space": 3433, "umb": 3434, "\u0120password": 3435, "\u0120store": 3436, "\u0120What": 3437, "ged": 3438, "\u0120False": 3439, "Us": 3440, "swer": 3441, "_index": 3442, "\u0120format": 3443, "most": 3444, "sm": 3445, "New": 3446, "\u0120details": 3447, "\u0120prob": 3448, "\u0120AND": 3449, "ilar": 3450, "\u0120${": 3451, "rypt": 3452, ".Collections": 3453, "$this": 3454, "\u0120Free": 3455, "_of": 3456, "(false": 3457, "dated": 3458, "\u0120>>": 3459, "\u0120face": 3460, "CTION": 3461, "\u0120save": 3462, "\u0120typ": 3463, "dev": 3464, "(\"#": 3465, "AGE": 3466, "container": 3467, "edit": 3468, "QL": 3469, "\u0120items": 3470, "\u0120social": 3471, "ien": 3472, "\u0120React": 3473, "\u0120mar": 3474, "\u0120redu": 3475, "\u0120RE": 3476, ".put": 3477, "\u0120major": 3478, "Cell": 3479, "next": 3480, "\u0120expected": 3481, "\u0120yet": 3482, "\u0120indiv": 3483, "tributes": 3484, "atis": 3485, "amed": 3486, "\u0120food": 3487, "Source": 3488, "(string": 3489, "ites": 3490, "dr": 3491, "\u0120members": 3492, "\u0120comb": 3493, "items": 3494, "\u0120Per": 3495, "TH": 3496, "=True": 3497, "\u0120bar": 3498, "_SE": 3499, "comm": 3500, "(w": 3501, "\u0120send": 3502, "\u0120inc": 3503, "unsigned": 3504, "FA": 3505, "\u0120params": 3506, "apping": 3507, "ros": 3508, "ugin": 3509, "fa": 3510, "\u0120connection": 3511, "\u0120become": 3512, "Mode": 3513, "\u0120ev": 3514, "\u0120diff": 3515, "\u0120United": 3516, "Height": 3517, "fully": 3518, "images": 3519, "\u0120makes": 3520, "\u0120global": 3521, "\u0120contact": 3522, "\u0120abs": 3523, "float": 3524, "\u0120except": 3525, "\u0120Pol": 3526, "Child": 3527, "typ": 3528, "\u0120certain": 3529, "i\u00c3\u00b3n": 3530, "OUT": 3531, "\u0120impro": 3532, "iles": 3533, "\u0120Part": 3534, "values": 3535, "oss": 3536, "/**": 3537, "ilit": 3538, "\u0120Event": 3539, "curity": 3540, "ster": 3541, "\u0120character": 3542, "\u0120news": 3543, "\u0120\",": 3544, "\u0120device": 3545, "cel": 3546, "login": 3547, "heet": 3548, "Default": 3549, "@\"": 3550, "\u0109\u0120": 3551, "click": 3552, "(value": 3553, "\u0120Ab": 3554, "\u0120previous": 3555, "ERROR": 3556, "ocal": 3557, "\u0120material": 3558, "\u0120below": 3559, "\u0120Christ": 3560, "\u0120media": 3561, "cover": 3562, "\u0120UI": 3563, "\u0120fail": 3564, "\u0120black": 3565, "\u0120component": 3566, "\u0120American": 3567, "\u0120added": 3568, "\u0120buy": 3569, "stit": 3570, "\u0120came": 3571, "\u0120delete": 3572, "property": 3573, "oding": 3574, "\u0120card": 3575, "rops": 3576, "\u0120https": 3577, "\u0120root": 3578, "\u0120handle": 3579, "CC": 3580, "Back": 3581, "emplate": 3582, "\u0120getting": 3583, "_by": 3584, "mail": 3585, "_sh": 3586, ".assert": 3587, "\u0120Dec": 3588, "(true": 3589, "\u0120comput": 3590, "\u0120claim": 3591, "'=>": 3592, "\u0120Sub": 3593, "\u0120air": 3594, "ops": 3595, "nav": 3596, "ements": 3597, "(id": 3598, "\u0120enter": 3599, "anged": 3600, "End": 3601, "\u0120location": 3602, "\u0120night": 3603, "\u0120doing": 3604, "\u0120Red": 3605, "lin": 3606, "vider": 3607, "\u0120pick": 3608, "\u0120watch": 3609, "essages": 3610, "\u0120human": 3611, "\u0120dam": 3612, "pend": 3613, "dir": 3614, "\u0120tax": 3615, "\u0120girl": 3616, "reet": 3617, "\u0120box": 3618, "\u0120strong": 3619, "(v": 3620, "rel": 3621, "\u0120interface": 3622, "\u0120msg": 3623, "fect": 3624, "_at": 3625, "\u0120house": 3626, "\u0120track": 3627, "je": 3628, "\u0120John": 3629, "istr": 3630, "(S": 3631, "ube": 3632, "\u0120ce": 3633, "itted": 3634, "VER": 3635, "*)": 3636, "parent": 3637, "\u0120application": 3638, "any": 3639, ".swing": 3640, "\u0120pack": 3641, "\\u": 3642, "\u0120pract": 3643, "\u0120section": 3644, "ctx": 3645, "\u0120unsigned": 3646, ".Point": 3647, "\u0120One": 3648, "\u00c4\u00b1": 3649, "iple": 3650, "aid": 3651, "\u00d1\u0125": 3652, "Vector": 3653, "byte": 3654, "\u0120wait": 3655, "\u0120\u00c3\u0142": 3656, "\u00c3\u00a5": 3657, "\u0120together": 3658, "\u0120throws": 3659, "FO": 3660, "'))": 3661, "host": 3662, "ising": 3663, ".view": 3664, "\u0120terms": 3665, "framework": 3666, "-r": 3667, "\u0120apply": 3668, "\u0120session": 3669, "Options": 3670, "uggest": 3671, "\u0120others": 3672, "witter": 3673, "\u0120fund": 3674, "Init": 3675, "__(": 3676, "ensor": 3677, "GET": 3678, "\u0120several": 3679, "ii": 3680, "[j": 3681, "IO": 3682, "\u0120template": 3683, "Position": 3684, "\u0120econ": 3685, "achine": 3686, "\u0120il": 3687, ".spring": 3688, "main": 3689, "elt": 3690, "iment": 3691, "Rec": 3692, "mm": 3693, "\u0120University": 3694, "ursor": 3695, "\u0120\u0120\u0120\u0120\u0120\u0120\u0120\u0120\u0120\u0120\u0120\u0120\u0120\u0120\u0120\u0120\u0120\u0120\u0120\u0120": 3696, "GL": 3697, "icture": 3698, "ithub": 3699, "cer": 3700, "cast": 3701, "From": 3702, "ales": 3703, "\u0120subject": 3704, "password": 3705, "ny": 3706, "\u0120esc": 3707, ".write": 3708, "\u00ef\u00bc\u012e": 3709, "What": 3710, ".H": 3711, "\u0120history": 3712, "\u0120Fe": 3713, "\u0120individual": 3714, "unit": 3715, "\u0120-->": 3716, "\u0120du": 3717, "IST": 3718, "\u0120users": 3719, "fs": 3720, "false": 3721, "unt": 3722, "Title": 3723, "\u0120mot": 3724, "\u0120future": 3725, "ached": 3726, "\u0120started": 3727, "\u0120mode": 3728, "\u0120'<": 3729, "_array": 3730, "\u0120ax": 3731, "ires": 3732, "There": 3733, "ught": 3734, "tml": 3735, "posed": 3736, "icult": 3737, "\u0120took": 3738, "\u0120games": 3739, "\u0120}}": 3740, "\u0120products": 3741, "Is": 3742, "\u0120bad": 3743, "\u0120Des": 3744, ".path": 3745, "\u0120Post": 3746, "avel": 3747, "(:": 3748, "\u0120needs": 3749, "\u0120known": 3750, "Fl": 3751, "\u0120exec": 3752, "\u0120seen": 3753, "ume": 3754, "\u0120border": 3755, "\u0120live": 3756, "temp": 3757, "Per": 3758, "\u0120variable": 3759, "iet": 3760, "\u0120Def": 3761, "\u0120ge": 3762, "eme": 3763, "_back": 3764, "first": 3765, "\u0120provided": 3766, "////////////////////////////////": 3767, "\u0120filename": 3768, "\u0120hope": 3769, "uly": 3770, "auto": 3771, "find": 3772, "_string": 3773, "btn": 3774, "itude": 3775, "Attribute": 3776, "\u0120young": 3777, ".txt": 3778, "\u0120website": 3779, "\u0120Prop": 3780, "\u0120ey": 3781, "ional": 3782, "ARR": 3783, "ictionary": 3784, "urther": 3785, ".</": 3786, "ALL": 3787, "\u0120study": 3788, "ili": 3789, "\u0120network": 3790, "yl": 3791, "istance": 3792, "OK": 3793, "NU": 3794, "rest": 3795, "\u0120ST": 3796, "icrosoft": 3797, "\u0120limit": 3798, "\u0120cut": 3799, "\u0120cou": 3800, "ogn": 3801, "\u0120sizeof": 3802, "ival": 3803, "\u0120went": 3804, ".z": 3805, "Link": 3806, "\u0120fire": 3807, "\u0120across": 3808, "\u0120community": 3809, "region": 3810, "NE": 3811, "Ref": 3812, "\u0120official": 3813, "\u0120visit": 3814, "olve": 3815, "\u0120received": 3816, "\u0120token": 3817, "\u0120months": 3818, "\u0120anim": 3819, "\u0120particular": 3820, "styles": 3821, "ico": 3822, "\u0120ess": 3823, ".Control": 3824, "\u0120\u00c3\u00a9": 3825, "ball": 3826, "\u0120learn": 3827, "inding": 3828, "Var": 3829, "\u0120decl": 3830, "(err": 3831, "LECT": 3832, "One": 3833, "pha": 3834, "\u0120~": 3835, "fort": 3836, "asure": 3837, "\u0120mind": 3838, "\u0120End": 3839, "Check": 3840, "\u0120quick": 3841, "\"),": 3842, "AND": 3843, "utions": 3844, "Base": 3845, "________": 3846, "\u0120comment": 3847, "INE": 3848, "\u00e2\u0122\u013bve": 3849, "But": 3850, "\u0120El": 3851, "\u0120Us": 3852, "\u0120admin": 3853, "mark": 3854, "\u0120Name": 3855, "\u0120Type": 3856, "amic": 3857, "pc": 3858, "loor": 3859, "FT": 3860, "\u0120opp": 3861, "cket": 3862, ")->": 3863, "tx": 3864, "\u0120pur": 3865, "uel": 3866, "ymbol": 3867, "uation": 3868, "anger": 3869, "\u0120background": 3870, "ecess": 3871, "efined": 3872, "........": 3873, "\u0120description": 3874, "\u0120represent": 3875, "pression": 3876, "rowser": 3877, "\u0120series": 3878, "wards": 3879, "($_": 3880, "aise": 3881, "\u0120hot": 3882, "acity": 3883, "ries": 3884, "actions": 3885, "Create": 3886, "adio": 3887, "amples": 3888, "\u0120original": 3889, "ensive": 3890, "font": 3891, "stream": 3892, "\u00ef\u00bb\u00bfusing": 3893, ".springframework": 3894, "server": 3895, "\u0120bill": 3896, "ACK": 3897, "ilename": 3898, "\u0120frame": 3899, "Edit": 3900, "adius": 3901, "\u0120draw": 3902, "anks": 3903, "\u0120deter": 3904, "\u0120comes": 3905, "_int": 3906, "\u0120foreach": 3907, "angle": 3908, "\u0120elect": 3909, "pected": 3910, "Header": 3911, "istration": 3912, "False": 3913, "\u0120Game": 3914, "\u0120filter": 3915, "Activity": 3916, "\u0120larg": 3917, "inition": 3918, "\u0120\"<": 3919, "ised": 3920, "\u0120remove": 3921, "\u0120Trans": 3922, "met": 3923, "see": 3924, "Format": 3925, "Command": 3926, "\u0120EX": 3927, "None": 3928, "\u0120front": 3929, "ASE": 3930, "\u0120Rec": 3931, "oundation": 3932, "\u0120vo": 3933, "=\\\"": 3934, "(*": 3935, "Change": 3936, ".Write": 3937, "group": 3938, "ients": 3939, "uy": 3940, "****************************************************************": 3941, "\u0120dig": 3942, "hr": 3943, "(-": 3944, "\u0120gen": 3945, "number": 3946, "vec": 3947, "urope": 3948, "entry": 3949, "LL": 3950, "\u0120ste": 3951, "Valid": 3952, "'],": 3953, "_param": 3954, "\u0120selected": 3955, "\u0120according": 3956, "\u0120Dis": 3957, "\u0120util": 3958, "Buffer": 3959, "_error": 3960, "\u0120associ": 3961, "_SIZE": 3962, "\u0120wor": 3963, "\u0120printf": 3964, "rag": 3965, "\u00c2\u0142": 3966, "DD": 3967, "\u0120Val": 3968, "\u0120activ": 3969, "Eng": 3970, "etime": 3971, "\u0120virtual": 3972, "aign": 3973, "aur": 3974, "\u0120Pres": 3975, "\u0120Exception": 3976, "\u0120anything": 3977, "\u0120Off": 3978, "\u0120hours": 3979, "\u0120war": 3980, "Args": 3981, "aging": 3982, "\u0120models": 3983, "\u0120Time": 3984, "Ob": 3985, "ams": 3986, "joy": 3987, "\u0120early": 3988, ".read": 3989, "\u0120center": 3990, "\u0120Initial": 3991, "\u0120language": 3992, "length": 3993, "xy": 3994, "\u0120sn": 3995, "\u0120inf": 3996, "Post": 3997, "\u0120ago": 3998, "\u0120easy": 3999, "_code": 4000, "\u0120ANY": 4001, "_ch": 4002, "\u0120download": 4003, "(T": 4004, "aved": 4005, "\u00e2\u0122\u0135": 4006, "\u0120students": 4007, "\u0120fig": 4008, "light": 4009, "xx": 4010, "\u0120buffer": 4011, "\u0120Dep": 4012, "\u0120Math": 4013, "ITH": 4014, "\u0120vari": 4015, "\u0120due": 4016, "Factory": 4017, "\u0120por": 4018, "\u0120ep": 4019, "otype": 4020, "\u0120cannot": 4021, "\u0120white": 4022, "<int": 4023, "tern": 4024, "\u0120register": 4025, "\u0120pred": 4026, "clus": 4027, "_date": 4028, "\u0120/**": 4029, "\u0120auth": 4030, "\u0120period": 4031, "nown": 4032, "\u0120vot": 4033, "\u0120screen": 4034, "'d": 4035, "Types": 4036, "\u0120tmp": 4037, "ural": 4038, "\u0120benef": 4039, "_y": 4040, "\u0120net": 4041, "\u0120States": 4042, "']['": 4043, "\u0120Ne": 4044, "\u0120NOT": 4045, "\u0120neg": 4046, "\u0120common": 4047, "scope": 4048, "\u0120cred": 4049, "ges": 4050, "_TYPE": 4051, "\u0120suggest": 4052, "oom": 4053, "\u0120accept": 4054, "\u0120random": 4055, "erm": 4056, "\u0120Vector": 4057, "with": 4058, "TER": 4059, "(str": 4060, "\u0120respons": 4061, "\u0120hit": 4062, ".Set": 4063, "grid": 4064, "ria": 4065, "\u0120click": 4066, "undle": 4067, "Case": 4068, "insert": 4069, "Utils": 4070, "\u0120\"\"\"": 4071, "\u0120implement": 4072, "atal": 4073, "tempt": 4074, "template": 4075, "ocr": 4076, "returns": 4077, "\u0120players": 4078, "users": 4079, "edef": 4080, "\u0120These": 4081, "\u0120among": 4082, "\u0120deb": 4083, "ha": 4084, ".getElement": 4085, "\u0120circ": 4086, "\u0120answer": 4087, "\u0120walk": 4088, "\u0120treat": 4089, "\u0120Ge": 4090, "\u0120Create": 4091, "\u0120age": 4092, "\u0120req": 4093, "OST": 4094, "angular": 4095, "\u00d1\u0131": 4096, "\u0120five": 4097, "\u0120distributed": 4098, "\u0120friend": 4099, "TP": 4100, "\u0120clean": 4101, "ows": 4102, ".Controls": 4103, "dis": 4104, "\u0120words": 4105, ".io": 4106, "zy": 4107, "\u0120header": 4108, "\u0120Check": 4109, "\u00e2\u0122\u013bm": 4110, "just": 4111, "holder": 4112, "=\"<?": 4113, "\u0120GNU": 4114, "\u0120Col": 4115, "imest": 4116, "entic": 4117, "\u0120tre": 4118, "last": 4119, "la": 4120, "\u0120York": 4121, "Lo": 4122, "\u0120discuss": 4123, "\u0120God": 4124, "\u0120issue": 4125, "rew": 4126, "Window": 4127, "\u0120land": 4128, "\u0120stream": 4129, "\u0120Par": 4130, "\u0120quality": 4131, "Par": 4132, "_num": 4133, "\u0120sal": 4134, "elves": 4135, "ORD": 4136, "(user": 4137, "\u0120works": 4138, "\u0120half": 4139, "enses": 4140, "vas": 4141, "\u0120police": 4142, "(\"/": 4143, "ua": 4144, "\u0120simple": 4145, "Address": 4146, "\u0120empty": 4147, "esh": 4148, "Update": 4149, "\u0120Created": 4150, "('.": 4151, "\u0120\u0120\u0120\u0120\u0120\u0120\u0120\u0120\u0120\u0120\u0120\u0120\u0120\u0120\u0120\u0120\u0120\u0120": 4152, "\u0120agre": 4153, "\u0120FROM": 4154, "\u0120cook": 4155, "\u0120everything": 4156, "ilities": 4157, ".status": 4158, "\u0120relations": 4159, "extern": 4160, "\u0120nothing": 4161, "\u0120running": 4162, "\u0109void": 4163, "RI": 4164, "_a": 4165, "_CON": 4166, "por": 4167, ".sub": 4168, "require": 4169, "\u0120City": 4170, "\u0120West": 4171, "\u0120mor": 4172, "store": 4173, "Equals": 4174, "oder": 4175, "\u0120na": 4176, "\u0120[[": 4177, "\u0120('": 4178, "\u0120Don": 4179, "ERS": 4180, "/p": 4181, ".json": 4182, "abor": 4183, "\u0120someone": 4184, "_text": 4185, ".css": 4186, ".Tab": 4187, "\u0120Some": 4188, "ato": 4189, "double": 4190, "\u0120share": 4191, "(void": 4192, "_dir": 4193, "\u0120ur": 4194, "Stack": 4195, "\u0120World": 4196, ".X": 4197, "stract": 4198, "How": 4199, ".Generic": 4200, "icles": 4201, "\u0120entry": 4202, "\u0120changes": 4203, "\u0120personal": 4204, "(A": 4205, "\u0120offset": 4206, "_ptr": 4207, "\u0120pie": 4208, "\u0120Jan": 4209, "-group": 4210, "module": 4211, "Items": 4212, "\u0120However": 4213, "verage": 4214, ".Font": 4215, "\u0120events": 4216, ".min": 4217, "\u0120invol": 4218, "za": 4219, "\u0120whole": 4220, "\u0120needed": 4221, "\u0120likely": 4222, "rief": 4223, "ORM": 4224, "version": 4225, "\u0120fight": 4226, "\u0120ein": 4227, "Frame": 4228, "gen": 4229, "\u0120Out": 4230, "avigation": 4231, "Length": 4232, "illed": 4233, "quence": 4234, "\u0120!==": 4235, "\u0120Software": 4236, "\u0120writing": 4237, "\u0120rate": 4238, "Panel": 4239, "inner": 4240, "\u0120[\"": 4241, "\u0120tw": 4242, "cd": 4243, "_state": 4244, "\u0120Sm": 4245, "\u0120Mark": 4246, "prot": 4247, "\u0120Mr": 4248, "method": 4249, "ustomer": 4250, "Icon": 4251, "\u0120correct": 4252, "(object": 4253, "\u0120More": 4254, "\u0120fall": 4255, "\u0120vol": 4256, "\u0120development": 4257, "ently": 4258, "\u0120si": 4259, "medi": 4260, "ving": 4261, "PP": 4262, "aker": 4263, "\u0120indu": 4264, "\u0120elif": 4265, "\u0120pret": 4266, "\u0120believe": 4267, "ns": 4268, "omet": 4269, "\u0120Intern": 4270, "Rect": 4271, "So": 4272, ".error": 4273, "Read": 4274, "\u0120features": 4275, "\u0120minutes": 4276, "---": 4277, "asing": 4278, "cret": 4279, ".annot": 4280, "\u0120collection": 4281, "'.": 4282, "\u0120similar": 4283, "\u0120taken": 4284, "(\"%": 4285, "Order": 4286, "-md": 4287, "\u0120TH": 4288, "aced": 4289, "\u0120isn": 4290, "/j": 4291, "\u0120son": 4292, "graph": 4293, "\u0120Integer": 4294, "\u0120necess": 4295, "reen": 4296, "\u0120um": 4297, "\u0120\\<": 4298, "\u0120moment": 4299, "\u0120bring": 4300, "\u0120indic": 4301, "ysis": 4302, "Level": 4303, "verse": 4304, "urrenc": 4305, "_test": 4306, "\u0120entire": 4307, "Down": 4308, "(result": 4309, "\u0120Read": 4310, "\u00c3\u00a8": 4311, "Mod": 4312, "\u0120trying": 4313, "\u0120member": 4314, "\u0120Cor": 4315, "ODO": 4316, "-control": 4317, "untime": 4318, "\u0120Sim": 4319, "Dialog": 4320, "plot": 4321, "_on": 4322, "\u0120phys": 4323, "}/": 4324, "\u0120namespace": 4325, "\u0109\u010d\u010a": 4326, "acc": 4327, "Player": 4328, "ARE": 4329, "\u0120foot": 4330, "\u0120board": 4331, "part": 4332, "\u0120sus": 4333, "wise": 4334, "\u0120Mc": 4335, "\u0120push": 4336, "ATA": 4337, "\u0120please": 4338, "ried": 4339, "weet": 4340, "bit": 4341, "ided": 4342, "VE": 4343, "\u0120Sw": 4344, "UB": 4345, "\u0120types": 4346, "edia": 4347, "\u0120clos": 4348, "acebook": 4349, "When": 4350, "\u0120edit": 4351, "igger": 4352, "\u0120energ": 4353, "Container": 4354, "\u0120phot": 4355, "\u0120Count": 4356, "\u0120Europe": 4357, ".Is": 4358, "\u0120Russ": 4359, "peed": 4360, "\u0120Str": 4361, "\u0120py": 4362, "\u0120cult": 4363, "\u0120defined": 4364, "ccount": 4365, "\u0120obt": 4366, ".Location": 4367, "\u0120thread": 4368, "ille": 4369, "\u0120instead": 4370, "strong": 4371, "\u0120Sec": 4372, "URE": 4373, "\u0120idea": 4374, ".se": 4375, "emy": 4376, "selected": 4377, "Connection": 4378, "acing": 4379, "thread": 4380, ".next": 4381, "\u0120coll": 4382, "\u0120film": 4383, "istic": 4384, "\u0120compet": 4385, "\u0120conn": 4386, "though": 4387, "\u0120compan": 4388, "ocket": 4389, "\u0120teach": 4390, "=(": 4391, "\u0120phone": 4392, "\u0120active": 4393, "delete": 4394, "tries": 4395, "\u0120mo": 4396, "\u0120death": 4397, "ocol": 4398, "Widget": 4399, "\u0120article": 4400, "rodu": 4401, "andid": 4402, "\u00d1\u012d": 4403, "\u0120Cr": 4404, "ka": 4405, "():": 4406, "lood": 4407, "\u0109\u0109\u0109\u010a": 4408, "\u0120almost": 4409, "\u0120sell": 4410, "ervlet": 4411, "rip": 4412, "Unit": 4413, "\u0120applic": 4414, "\u0120connect": 4415, "\u0120feature": 4416, "\u0120via": 4417, "'),": 4418, "\u0120lim": 4419, "\u0120\u0120\u0120\u0120\u0120\u0120\u0120\u0120\u0120\u0120\u0120\u0120\u0120\u0120\u0120\u0120\u0120\u0120\u0120\u0120\u0120\u0120\u0120\u0120\u0120\u0120\u0120\u0120\u0120\u0120\u0120\u0120\u0120\u0120\u0120\u0120\u0120\u0120\u0120\u0120\u0120\u0120\u0120\u0120\u0120\u0120\u0120": 4420, "\u0120Gu": 4421, "Engine": 4422, "\u0120ens": 4423, "\u0120environment": 4424, "block": 4425, "HERE": 4426, "NULL": 4427, "gy": 4428, "tag": 4429, ")).": 4430, "exp": 4431, "\u0120compl": 4432, "\u0120install": 4433, "\u0120complete": 4434, "queue": 4435, "atural": 4436, "\u0120general": 4437, "thon": 4438, "\u0120asked": 4439, "ores": 4440, "(res": 4441, "\u0120reserved": 4442, "SP": 4443, "\u0120\u00e2\u0122\u00a6": 4444, "\u00c5\u0124": 4445, "\u0120signific": 4446, "Off": 4447, "\u0120\u0120\u0120\u0120\u0120\u0120\u0120\u0120\u0120\u0120\u0120\u0120\u0120\u0120\u0120\u0120\u0120\u0120\u0120\u0120\u0120\u0120\u0120\u0120\u0120\u0120\u0120\u0120\u0120": 4448, "\u0120Ag": 4449, "\u0120Just": 4450, "\u0120Error": 4451, "\u0120infl": 4452, "adata": 4453, "\u0120icon": 4454, "asks": 4455, "''": 4456, "_LO": 4457, "?.": 4458, "account": 4459, "\u0120(*": 4460, "rap": 4461, "_var": 4462, "\u0120FOR": 4463, "\u0120party": 4464, "\u0120Your": 4465, "cat": 4466, "stry": 4467, ".new": 4468, "boot": 4469, "\u0120Nov": 4470, "\u0120vector": 4471, "\u0120normal": 4472, "\u0120further": 4473, "Repository": 4474, "\u0120database": 4475, "attle": 4476, "\u0120music": 4477, "\u0120speed": 4478, "\u0120doc": 4479, "process": 4480, "IGHT": 4481, ".parse": 4482, "\u0120taking": 4483, "\u0120viol": 4484, "ceed": 4485, "\u0120After": 4486, "\u0120forward": 4487, "\u0120crit": 4488, "rot": 4489, "\u0120failed": 4490, "efore": 4491, "\u0120concern": 4492, "oe": 4493, "ba": 4494, "\u0120sender": 4495, "\u0120term": 4496, "has": 4497, "=\"#": 4498, "\u0120potential": 4499, "Num": 4500, "\u0120published": 4501, ".close": 4502, "\u0120Image": 4503, "straint": 4504, "UD": 4505, "\u0120Ob": 4506, "\u0120probably": 4507, "lim": 4508, "olume": 4509, "\u0120consum": 4510, "ague": 4511, "ensions": 4512, "\u0120investig": 4513, "-year": 4514, "');": 4515, "-sm": 4516, "\u0120enjoy": 4517, "orig": 4518, "ering": 4519, "cp": 4520, "leased": 4521, "plements": 4522, "\u0120returns": 4523, "pat": 4524, "BO": 4525, "\u0120House": 4526, ".Label": 4527, "\u0120weight": 4528, "ighb": 4529, "\u0120conditions": 4530, "\u0120exception": 4531, "description": 4532, "\u0120trad": 4533, "-to": 4534, "\u0120{}": 4535, "\u0120module": 4536, "END": 4537, ".ap": 4538, ".props": 4539, "\u0120constructor": 4540, "aves": 4541, "\u0120favor": 4542, "\u0120Now": 4543, ";i": 4544, "\u0120Main": 4545, "_k": 4546, "eries": 4547, "\u00e2\u0122\u013bll": 4548, "transform": 4549, "imestamp": 4550, "Pre": 4551, "\u0120mer": 4552, ".res": 4553, "stant": 4554, "Location": 4555, "_NAME": 4556, "\u0120loss": 4557, "\u0120\u010a\u010a": 4558, "net": 4559, "\u0120engine": 4560, "Block": 4561, "\u0120issues": 4562, "\u0120parse": 4563, "\u0120Bar": 4564, "\u0120stay": 4565, "\u0120JSON": 4566, "\u0120dom": 4567, "airs": 4568, "wner": 4569, "\u0120lower": 4570, "\u0120Dem": 4571, "ufact": 4572, "\u0120ps": 4573, "\u0120perfect": 4574, "RL": 4575, "\u0120educ": 4576, "ls": 4577, "emory": 4578, "ARRANT": 4579, "uge": 4580, "\u0120exact": 4581, ".key": 4582, "alled": 4583, "ech": 4584, "ief": 4585, "\\/": 4586, "oke": 4587, "\u0120former": 4588, "alloc": 4589, "\u0120six": 4590, "ida": 4591, "\u0120margin": 4592, "\u0120heart": 4593, "ald": 4594, "pack": 4595, ".getElementById": 4596, "\u0120WARRANT": 4597, "\u0120rather": 4598, "\u0120building": 4599, "erman": 4600, "lice": 4601, "\u0120questions": 4602, "izes": 4603, "lege": 4604, "irectory": 4605, "\u0120je": 4606, "\u0120cas": 4607, "props": 4608, "utf": 4609, "\u0120security": 4610, "\u0120however": 4611, "weight": 4612, "\u0120inside": 4613, "\u0120president": 4614, "Char": 4615, "\u0120WITH": 4616, ".map": 4617, "\u0120graph": 4618, "\u0120tag": 4619, "_status": 4620, "\u0120attempt": 4621, "opp": 4622, "uses": 4623, "\u0109const": 4624, "\u0120round": 4625, ",$": 4626, "\u0120friends": 4627, "Email": 4628, "?>": 4629, "Resource": 4630, "KEY": 4631, "osp": 4632, ".query": 4633, "\u0120North": 4634, "ables": 4635, "istrib": 4636, "_class": 4637, "ello": 4638, "That": 4639, "\u00d0\u00ba": 4640, "pecially": 4641, "\u0120President": 4642, "\u0120campaign": 4643, "\u0120alt": 4644, "area": 4645, "\u0120chall": 4646, "\u0120opport": 4647, ".Con": 4648, "\u0120energy": 4649, "like": 4650, ".string": 4651, "ington": 4652, ")*": 4653, "yy": 4654, "\u0120profession": 4655, "irth": 4656, "\u0120seg": 4657, "\u0120hor": 4658, "iers": 4659, "can": 4660, "\u0120behind": 4661, "Product": 4662, "fg": 4663, "\u0120Sk": 4664, ".jpg": 4665, "?:": 4666, "\u0120callback": 4667, "\u0120Http": 4668, "\u00d1\u012e": 4669, "long": 4670, "MS": 4671, "ATH": 4672, "\u0120raise": 4673, "\u0120wanted": 4674, "rown": 4675, "utor": 4676, "lt": 4677, "]=": 4678, "eline": 4679, "MA": 4680, "\u0120separ": 4681, "cs": 4682, "semb": 4683, "Dis": 4684, "bserv": 4685, "\u0120Will": 4686, "\u0120policy": 4687, "\u0120third": 4688, "phone": 4689, "\u0120bed": 4690, "/g": 4691, ".__": 4692, "\u0120Inc": 4693, "izing": 4694, ".remove": 4695, "instance": 4696, ".type": 4697, "\u0120serv": 4698, "Each": 4699, "\u0120har": 4700, "\u0120Message": 4701, "(key": 4702, "SELECT": 4703, "Pos": 4704, "\u0120recomm": 4705, "\u0120training": 4706, "\u0120Ent": 4707, "\u0120Char": 4708, "icht": 4709, "(file": 4710, "\u0120prior": 4711, "Game": 4712, "\u0120exit": 4713, "Params": 4714, ".core": 4715, "PC": 4716, "nes": 4717, "anced": 4718, "(request": 4719, "Password": 4720, "\u0120mag": 4721, "\u0120release": 4722, "\u0120shall": 4723, "udent": 4724, "\u0120South": 4725, "ando": 4726, ":'": 4727, ".TabIndex": 4728, "sk": 4729, "anner": 4730, "isset": 4731, "\u0120outside": 4732, "ledge": 4733, "\u0120Rob": 4734, "\u0120imm": 4735, "\u0120Web": 4736, "Des": 4737, "BC": 4738, "ancial": 4739, "Route": 4740, "Dec": 4741, "ferences": 4742, "\u0120purch": 4743, "\u0120Model": 4744, "ctor": 4745, "gn": 4746, "_start": 4747, "_un": 4748, ".*": 4749, "ises": 4750, "\u0120ground": 4751, "\u0120unique": 4752, "\u0120beaut": 4753, "{\"": 4754, "\u0120pour": 4755, "\u0120Oct": 4756, "\u0120tree": 4757, "sets": 4758, "_res": 4759, "')->": 4760, "_reg": 4761, "(\"\\": 4762, "\u0120byte": 4763, "Bl": 4764, "\u0120dating": 4765, "\u0120matter": 4766, "\u0120Rem": 4767, "\u0120'../": 4768, "\u0120Aug": 4769, "\u0120La": 4770, "\u0120$(": 4771, "ournal": 4772, "iam": 4773, "\u0120shows": 4774, "write": 4775, "\u0120ball": 4776, "\u0120simply": 4777, "\u0120fast": 4778, "\u0120memory": 4779, "ASS": 4780, "\u0120Of": 4781, "oved": 4782, "ante": 4783, "aul": 4784, "istry": 4785, "\u0120fit": 4786, "<string": 4787, "\u0120political": 4788, "ancel": 4789, "_.": 4790, "card": 4791, ".current": 4792, "och": 4793, "_image": 4794, "\\t": 4795, "(L": 4796, "\u0120industry": 4797, "coming": 4798, "\u0120extra": 4799, "\u0120reported": 4800, ".start": 4801, "\u0120resources": 4802, "\u0120img": 4803, "flow": 4804, "_EX": 4805, "(null": 4806, "\u0120Pre": 4807, "\u0120wrong": 4808, "interface": 4809, "Parameter": 4810, "ners": 4811, "\u00e1\u00bb": 4812, "ture": 4813, "ersist": 4814, "ountry": 4815, "\u0120seems": 4816, "alance": 4817, "dest": 4818, "\u0109String": 4819, "\u0120maint": 4820, "\u0120unit": 4821, "acters": 4822, "\u0120TR": 4823, "iful": 4824, "exports": 4825, "project": 4826, "Application": 4827, "legate": 4828, "\u0120takes": 4829, "term": 4830, "\u0120etc": 4831, "uster": 4832, "\u0120appear": 4833, "address": 4834, "\u0120fem": 4835, "hs": 4836, "\u0120hom": 4837, ",-": 4838, "\u0120difficult": 4839, "\u0120coming": 4840, "Open": 4841, "\u0120settings": 4842, "\u0120War": 4843, "\u0120Then": 4844, "\u0120autom": 4845, "\u0120Foundation": 4846, "\u0120quite": 4847, "Description": 4848, "\u0120blog": 4849, "iqu": 4850, "PS": 4851, "_field": 4852, "Json": 4853, "SSION": 4854, "\u0120Sch": 4855, "\u0120LO": 4856, "\u0120descri": 4857, "\u0120everyone": 4858, "\u0120pretty": 4859, "\u0120longer": 4860, "\u0120menu": 4861, "\u0120currently": 4862, "sec": 4863, "\u0120relationship": 4864, "################################": 4865, "\u0120Map": 4866, "aset": 4867, "\u0120parameters": 4868, "\u0120crush": 4869, "ILITY": 4870, "igration": 4871, "\u0120cout": 4872, "total": 4873, "\u0120names": 4874, "ndef": 4875, "\");": 4876, "riend": 4877, "ynamic": 4878, "\u0120effort": 4879, "\u0120actual": 4880, "\u0120fields": 4881, "OUN": 4882, "ters": 4883, "\u0120fix": 4884, "_model": 4885, "\u0120cases": 4886, "CA": 4887, "My": 4888, "Interface": 4889, "\u0120SE": 4890, "]]": 4891, "alle": 4892, "\u0120National": 4893, "\u0120ArrayList": 4894, "inline": 4895, ".V": 4896, "ara": 4897, "refix": 4898, "asc": 4899, "Reader": 4900, "\u0120\u00d0\u00bf": 4901, "astic": 4902, "(()": 4903, "Cl": 4904, ".annotation": 4905, "\u0120performance": 4906, "aily": 4907, ".toString": 4908, ".net": 4909, "views": 4910, ".end": 4911, "ayers": 4912, "late": 4913, "\u0120Apr": 4914, "ederal": 4915, "'])": 4916, ".body": 4917, "\u0120higher": 4918, "_fl": 4919, "cr": 4920, "alert": 4921, "_node": 4922, "\u0120Google": 4923, "\u0120itself": 4924, "Auth": 4925, "urrency": 4926, "\u0120significant": 4927, "append": 4928, "\u0120respect": 4929, "strap": 4930, "\u0120una": 4931, "riteria": 4932, "PORT": 4933, ".apache": 4934, "Output": 4935, "\u0120progress": 4936, "\u0120mid": 4937, "\u0120Microsoft": 4938, "\u0120resource": 4939, "ablish": 4940, "\u0120dim": 4941, ".load": 4942, ".App": 4943, "\u0120direction": 4944, "\u0120additional": 4945, "\u0120\u0120\u0120\u0120\u0120\u0120\u0120\u0120\u0120\u0120\u0120\u0120\u0120\u0120\u0120\u0120\u0120\u0120\u0120\u0120\u0120\u0120\u0120\u0120": 4946, "\u0120numbers": 4947, "\u0120companies": 4948, ".Th": 4949, "\u0120sound": 4950, "username": 4951, "\u0120statement": 4952, "\u0120alert": 4953, "\u0120contract": 4954, "home": 4955, "_length": 4956, ".Component": 4957, "ev": 4958, ".Ex": 4959, "\u00ef\u00bc\u013c": 4960, "\";": 4961, "\u0120High": 4962, "\u0120Point": 4963, "oph": 4964, "\u0120lines": 4965, "->_": 4966, "ox": 4967, "application": 4968, "\u010a\u010a\u010a\u010a\u010a\u010a": 4969, "\u0120soon": 4970, "ctions": 4971, "inger": 4972, "\u0120join": 4973, "\u0120Pe": 4974, "\u0120\u00eb": 4975, "\u0120las": 4976, ".E": 4977, "css": 4978, "/or": 4979, "\u0120Start": 4980, "\u0120TO": 4981, "\u0120subs": 4982, "conn": 4983, "components": 4984, "DEBUG": 4985, "quare": 4986, "Function": 4987, "endar": 4988, ".index": 4989, "\u0120fill": 4990, "\u00c4\u013b": 4991, "\u0120choose": 4992, "how": 4993, "\u0120America": 4994, "assets": 4995, "------------": 4996, "\u0120Value": 4997, "\u0120office": 4998, "\u0120veh": 4999, "\u0120transform": 5000, "\u0120Art": 5001, "\u0120inde": 5002, "\u0120fn": 5003, "\u0120implements": 5004, "ango": 5005, "plete": 5006, "+\"": 5007, "tmp": 5008, "amily": 5009, "\u0120hash": 5010, "missions": 5011, "EST": 5012, "gt": 5013, "Provider": 5014, "\u0120\u0120\u0120\u0120\u0120\u0120\u0120\u0120\u0120\u0120\u0120\u0120\u0120\u0120\u0120\u0120\u0120\u0120\u0120\u0120\u0120\u0120": 5015, "\u0120flag": 5016, "\u0120particip": 5017, "den": 5018, "\u0120Returns": 5019, "\u0120note": 5020, "\u00c3\u00bcr": 5021, "pm": 5022, "ideos": 5023, "\u0120specified": 5024, "\u0120EN": 5025, "ester": 5026, "olid": 5027, "\u0120upon": 5028, "(std": 5029, "\u0109v": 5030, "\u0120'\\": 5031, "uz": 5032, "\u0120vert": 5033, "\u0120vict": 5034, "\u0109self": 5035, "\u0120\"$": 5036, ".k": 5037, "\u0120groups": 5038, "github": 5039, "lang": 5040, "\u0120mut": 5041, "TO": 5042, "\u0120ve": 5043, "\u0120Please": 5044, "access": 5045, "\u0120{\"": 5046, "rea": 5047, "\u0120risk": 5048, "icker": 5049, "oggle": 5050, "\u0109while": 5051, "ANG": 5052, ".send": 5053, "\u0120woman": 5054, "\u0120gets": 5055, "\u0120ign": 5056, "\u0120Id": 5057, "_log": 5058, "ONE": 5059, "\u0120evid": 5060, "\u0120Har": 5061, "_sub": 5062, "\u0120endl": 5063, "\u0120included": 5064, "\u0120Ap": 5065, "igr": 5066, "\u0120sem": 5067, "\u0120Black": 5068, "doc": 5069, "_table": 5070, "\u0120\u0120\u0120\u0120\u0120\u0120\u0120\u0120\u0120\u0120\u0120\u0120\u0120\u0120\u0120\u0120\u0120\u0120\u0120\u0120\u0120\u0120\u0120\u0120\u0120\u0120\u0120\u0120\u0120\u0120\u0120\u0120\u0120\u0120\u0120\u0120\u0120\u0120\u0120\u0120\u0120\u0120\u0120\u0120\u0120\u0120\u0120\u0120\u0120\u0120\u0120\u0120\u0120\u0120\u0120\u0120\u0120\u0120\u0120\u0120\u0120\u0120\u0120\u0120": 5071, "-up": 5072, "\u0120cause": 5073, "\u0120..": 5074, "\u0120van": 5075, "_dict": 5076, "\u0120focus": 5077, "IND": 5078, "CESS": 5079, ".Log": 5080, "\u0120multiple": 5081, "ido": 5082, "\u0120regard": 5083, "-M": 5084, "andler": 5085, "ourse": 5086, "\u0120deg": 5087, ".U": 5088, "\u0120addition": 5089, "\u0120various": 5090, "\u0120receive": 5091, "\u00d0\u00b5\u00d0\u00bd": 5092, "\u0120HT": 5093, "Obj": 5094, "DF": 5095, "\u0120increase": 5096, "\u0120Open": 5097, "];": 5098, "\u0120commit": 5099, "ategories": 5100, "atory": 5101, "ship": 5102, "\u0120Mich": 5103, "\u0120html": 5104, "romise": 5105, "\u0120leave": 5106, "\u0120strateg": 5107, "aven": 5108, "\u0120Console": 5109, "known": 5110, "-n": 5111, "_LE": 5112, ".component": 5113, "\u0120bre": 5114, "Session": 5115, "iance": 5116, "\u0120align": 5117, "typedef": 5118, "_result": 5119, "\u0120WHERE": 5120, ".split": 5121, "\u0120reading": 5122, "FAULT": 5123, "\u0120clo": 5124, "\u0120notice": 5125, "_pr": 5126, "arter": 5127, "\u0120lock": 5128, "\u0120standard": 5129, "etic": 5130, "ellow": 5131, "\u0120padding": 5132, "\u0120His": 5133, "\u0120states": 5134, "_cast": 5135, "(P": 5136, "aa": 5137, "\u0120internal": 5138, "ean": 5139, "\u0120PRO": 5140, "\u0120Key": 5141, "\u0120especially": 5142, "ming": 5143, "\u0120cross": 5144, "\u0120national": 5145, "_object": 5146, "filter": 5147, "\u0120script": 5148, ".update": 5149, "_i": 5150, "\u0120Assert": 5151, "/core": 5152, "%%%%": 5153, "\u0120problems": 5154, "istor": 5155, "\u0120.=": 5156, "\u0120arch": 5157, "\u0120written": 5158, "\u0120milit": 5159, "MENT": 5160, ".ch": 5161, "cape": 5162, "\u0120Mus": 5163, "_config": 5164, "\u0120API": 5165, "foot": 5166, "\u0120images": 5167, "endl": 5168, ".In": 5169, "First": 5170, "\u0120platform": 5171, ".prot": 5172, "Option": 5173, "ste": 5174, "\u0120TODO": 5175, "\u0120force": 5176, ".cont": 5177, "\u0109echo": 5178, "\u0120Dav": 5179, "Ptr": 5180, "(B": 5181, "RT": 5182, "\u0120Base": 5183, "]['": 5184, "\u0120announc": 5185, "console": 5186, "\u0120Py": 5187, "ds": 5188, ".as": 5189, "\u0120prevent": 5190, "apan": 5191, "\u0120{'": 5192, "}</": 5193, "\u0120Service": 5194, "\u0120Sen": 5195, "ador": 5196, "profile": 5197, "Top": 5198, "\u0120iter": 5199, "po": 5200, "IES": 5201, "JSON": 5202, "IE": 5203, "iant": 5204, "\u00e3\u0122\u0123": 5205, "_j": 5206, "\u0120Sept": 5207, "_map": 5208, "bum": 5209, "(context": 5210, "\u0120Home": 5211, "ians": 5212, "GB": 5213, "\u0120living": 5214, "\u0120pattern": 5215, "(input": 5216, "icient": 5217, "Core": 5218, "\u0120entity": 5219, "\u0120integ": 5220, "Changed": 5221, "\u0120useful": 5222, ".info": 5223, "\u0120tool": 5224, "(item": 5225, "\u0120ok": 5226, "\u0120feed": 5227, "IX": 5228, "\u00c3\u00a9s": 5229, "\u0120News": 5230, "remove": 5231, "erry": 5232, "\u0109\u0109\u0109\u0109\u0109\u0109\u0109\u0109\u0109": 5233, "ipment": 5234, "ares": 5235, "Do": 5236, "Current": 5237, ".content": 5238, ".Group": 5239, "ustral": 5240, "\u0120\u00d1\u0123": 5241, "})": 5242, "\u0120popular": 5243, "\u0120stre": 5244, "\u0120methods": 5245, "_ERROR": 5246, "Left": 5247, "cal": 5248, "bsp": 5249, ".ToString": 5250, "\u0120dir": 5251, "\u0120allowed": 5252, "\u0120impact": 5253, ".config": 5254, "\u0120elements": 5255, "\u0120prote": 5256, "\u0120train": 5257, ".tr": 5258, "rs": 5259, "\u0120Republic": 5260, "\u0120Task": 5261, "aries": 5262, "(D": 5263, "(get": 5264, "\u0120related": 5265, "\u0120vers": 5266, "\u0120sil": 5267, "\u0120cmd": 5268, "\u0120technology": 5269, ".width": 5270, "Float": 5271, "\u0120Use": 5272, "Body": 5273, "should": 5274, ".join": 5275, "Font": 5276, "llum": 5277, "ycle": 5278, "\u0120Brit": 5279, "\u0120mit": 5280, "\u0120scale": 5281, "\u0120(_": 5282, "ernel": 5283, "\u0120score": 5284, "/v": 5285, "\u0120student": 5286, "UC": 5287, ".show": 5288, "\u0120average": 5289, "Enabled": 5290, "(ex": 5291, "common": 5292, "imation": 5293, ":@\"": 5294, "chie": 5295, "river": 5296, "\u0120March": 5297, "category": 5298, "fin": 5299, "\u0120court": 5300, "\u00d0\u00b2": 5301, "Server": 5302, "\u0120container": 5303, "-st": 5304, "_for": 5305, "\u0120parts": 5306, "\u0120decision": 5307, "obs": 5308, "oub": 5309, "mitted": 5310, "\u0120$('#": 5311, "\u0120saw": 5312, "\u0120approach": 5313, "ICE": 5314, "\u0120saying": 5315, "\u0120anyone": 5316, "meta": 5317, "SD": 5318, "\u0120song": 5319, "display": 5320, "Oper": 5321, "outes": 5322, "\u0120channel": 5323, "\u0120changed": 5324, "\u00c3\u00aa": 5325, "\u0120finally": 5326, "_number": 5327, "Please": 5328, "\u00e0\u00a4": 5329, "oring": 5330, "-re": 5331, "\u0120kill": 5332, "\u0120drug": 5333, "window": 5334, "\u0120convert": 5335, "ombre": 5336, "\u0120ways": 5337, "Helper": 5338, "\u0120First": 5339, "(__": 5340, "urity": 5341, "\u0120Windows": 5342, "ees": 5343, "\u0120mat": 5344, "rapper": 5345, "\u0120plus": 5346, "anges": 5347, "\"].": 5348, "azon": 5349, "/t": 5350, "lat": 5351, "aste": 5352, "\u0120profile": 5353, "\u0120ready": 5354, "#ifndef": 5355, "rote": 5356, "\u0120sense": 5357, "Gener": 5358, "\u0120Config": 5359, "omy": 5360, "\u0120June": 5361, "\u0120latest": 5362, "\u0120saf": 5363, "\u0120region": 5364, "\u0120deep": 5365, "witch": 5366, "\u0120Park": 5367, "}`": 5368, "\u0120From": 5369, "II": 5370, "\u0120cv": 5371, "\u0120reach": 5372, "\u0120counter": 5373, "\u0120Work": 5374, "\u0120URL": 5375, "\u0120Update": 5376, "\u0120immedi": 5377, "close": 5378, "ados": 5379, "ferred": 5380, "\u0120weeks": 5381, "urg": 5382, "\u0120damage": 5383, "\u0120lost": 5384, "ani": 5385, "_lo": 5386, "\u0120himself": 5387, "\u0120dog": 5388, "\u00ef\u00bf": 5389, "pir": 5390, "tt": 5391, "\u0120paper": 5392, "\u0120thems": 5393, "second": 5394, "\u0120staff": 5395, "\u0120Input": 5396, "\"+": 5397, "\u0120Facebook": 5398, "\u0120alloc": 5399, "\u0120sched": 5400, "ACE": 5401, "\u0120themselves": 5402, "\u0120Component": 5403, "\u0120driver": 5404, "ja": 5405, "(path": 5406, "\u0120category": 5407, "alls": 5408, "pu": 5409, "lluminate": 5410, "\u0120Action": 5411, ".button": 5412, "\u0120GL": 5413, "istics": 5414, "\u0120oil": 5415, "\u0120stock": 5416, ">'": 5417, "\u0120dead": 5418, "VAL": 5419, "QUE": 5420, "************************************************************************": 5421, "\u0120charg": 5422, "Return": 5423, "\u0120ful": 5424, "dom": 5425, "\u0120rules": 5426, "\u0120modify": 5427, "\u0120eval": 5428, "ham": 5429, "atement": 5430, "\\<": 5431, "ula": 5432, "=False": 5433, "RA": 5434, "\u0120contains": 5435, "\u0120stack": 5436, "mar": 5437, "\u0120undefined": 5438, "Ass": 5439, "\u0120China": 5440, "vey": 5441, "\u0120playing": 5442, ")/": 5443, "actor": 5444, "\u0120bottom": 5445, "lier": 5446, "\u0120Number": 5447, "\u0120couple": 5448, "DC": 5449, "\u0120SO": 5450, "gor": 5451, ".setText": 5452, "success": 5453, "command": 5454, "Filter": 5455, "\u0120Our": 5456, "_item": 5457, "\u0120ctx": 5458, "\u0120road": 5459, "Version": 5460, "case": 5461, "urt": 5462, "avior": 5463, "ych": 5464, "sembly": 5465, "\u0120Product": 5466, "\u0120held": 5467, "afe": 5468, "\u0120includes": 5469, "<quote": 5470, "\u0120avoid": 5471, "\u0120Fin": 5472, "\u0120Mod": 5473, "\u0120tab": 5474, "ano": 5475, "\u00c3\u00b1": 5476, "ipping": 5477, "-e": 5478, "\u0120insert": 5479, "target": 5480, "chan": 5481, ".Model": 5482, "IME": 5483, "\u0120machine": 5484, "avy": 5485, "\u0120NO": 5486, "\u0120Inter": 5487, "\u0120operation": 5488, "modal": 5489, "Tag": 5490, "]:": 5491, "\u0120production": 5492, "\u0120areas": 5493, "\u0120ren": 5494, "_from": 5495, "nbsp": 5496, "\u0120operator": 5497, "men": 5498, "apped": 5499, "_per": 5500, "zen": 5501, "(\".": 5502, ".save": 5503, "=\"{{": 5504, "\u0120tor": 5505, "(response": 5506, "\u0120candid": 5507, "\u0120conv": 5508, "ailed": 5509, "\u0120Lib": 5510, "comp": 5511, "ura": 5512, "\u00ef\u00bf\u00bd": 5513, "\u0120Here": 5514, "\u0120argument": 5515, "hood": 5516, "\u0120establish": 5517, "ography": 5518, "\u0120onClick": 5519, "ambda": 5520, "\u0120sch": 5521, "\u0120movie": 5522, "\u0120sec": 5523, "\u0120activity": 5524, "\u00d8\u00a7": 5525, "\u0120sql": 5526, "_all": 5527, "incip": 5528, "\u0120provides": 5529, "\u0120sys": 5530, "acket": 5531, "\u0120wasn": 5532, "\u0120uses": 5533, "\u0120Function": 5534, ".google": 5535, "\u0120Result": 5536, "Visible": 5537, "agma": 5538, "elcome": 5539, "\u0120Sy": 5540, "\u0120Cent": 5541, "ALSE": 5542, "aci\u00c3\u00b3n": 5543, "EXT": 5544, "\u0120license": 5545, "\u0120Long": 5546, "\u0120accom": 5547, "\u0120ability": 5548, ".height": 5549, "Active": 5550, "ological": 5551, "oly": 5552, ")),": 5553, ".Se": 5554, "\u0120parameter": 5555, "prite": 5556, "ABILITY": 5557, ".service": 5558, "\u0120Group": 5559, "_query": 5560, "\u0120Item": 5561, "ining": 5562, "\u0120jud": 5563, "ims": 5564, "fix": 5565, "inder": 5566, "agram": 5567, "\u0120functions": 5568, "\u0120experi": 5569, "\u0120Em": 5570, "\u0120rot": 5571, "\u0120pen": 5572, ".btn": 5573, "\u0120AS": 5574, "#ifdef": 5575, "\u0120choice": 5576, "\u0120Page": 5577, "_PRO": 5578, "QU": 5579, "antity": 5580, "\u00c2\u0143": 5581, "words": 5582, "\u0120readonly": 5583, "\u0120flex": 5584, "protected": 5585, "\u0120Any": 5586, "\u0120characters": 5587, "enced": 5588, "\u0120July": 5589, "iler": 5590, "Card": 5591, "urance": 5592, "\u0120rev": 5593, ".event": 5594, "aly": 5595, "\u0120wonder": 5596, "\u0120Port": 5597, "\u0120legal": 5598, "role": 5599, "\u0120ten": 5600, "\u0120goes": 5601, "MP": 5602, "white": 5603, "\u0120reference": 5604, "\u0120mis": 5605, "\u0120Project": 5606, "icks": 5607, ">&": 5608, "CON": 5609, "\u0120repl": 5610, "\u0120regular": 5611, "Storage": 5612, "ramework": 5613, "\u0120goal": 5614, "\u0120touch": 5615, ".widget": 5616, "\u0120built": 5617, "des": 5618, "Part": 5619, "(re": 5620, "\u0120worth": 5621, "hib": 5622, "game": 5623, "\u0120\u00d0\u00b2": 5624, "acion": 5625, "\u0120White": 5626, "(type": 5627, "(`": 5628, "\u0120natural": 5629, "\u0120inj": 5630, "\u0120calcul": 5631, "\u0120April": 5632, ".List": 5633, "\u0120associated": 5634, "\u0109System": 5635, "~~": 5636, "=[": 5637, "\u0120storage": 5638, "\u0120bytes": 5639, "\u0120travel": 5640, "\u0120sou": 5641, "\u0120passed": 5642, "!=": 5643, "ascript": 5644, ".open": 5645, "\u0120grid": 5646, "\u0120bus": 5647, "\u0120recogn": 5648, "Ab": 5649, "\u0120hon": 5650, "\u0120Center": 5651, "\u0120prec": 5652, "build": 5653, "HTML": 5654, "\u0120San": 5655, "\u0120countries": 5656, "aled": 5657, "token": 5658, "kt": 5659, "\u0120qual": 5660, "Last": 5661, "adow": 5662, "\u0120manufact": 5663, "idad": 5664, "jango": 5665, "Next": 5666, "xf": 5667, ".a": 5668, "\u0120porno": 5669, "\u0120PM": 5670, "erve": 5671, "iting": 5672, "_th": 5673, "ci": 5674, "=None": 5675, "gs": 5676, "\u0120login": 5677, "atives": 5678, "\u00c4\u0127": 5679, "\u0120ill": 5680, "IA": 5681, "children": 5682, "DO": 5683, "\u0120levels": 5684, "\u0120{{": 5685, "\u0120looks": 5686, "\u0120\"#": 5687, "ToString": 5688, "\u0120necessary": 5689, "\u0120\u0120\u0120\u010a": 5690, "cell": 5691, "Entry": 5692, "\u0120'#": 5693, "\u0120extrem": 5694, "Selector": 5695, "\u0120placeholder": 5696, "Load": 5697, "\u0120released": 5698, "ORE": 5699, "Enumer": 5700, "\u0120TV": 5701, "SET": 5702, "inq": 5703, "Press": 5704, "\u0120Department": 5705, "\u0120properties": 5706, "\u0120respond": 5707, "Search": 5708, "ael": 5709, "\u0120requ": 5710, "\u0120Book": 5711, "(st": 5712, "\u0120financial": 5713, "icket": 5714, "_input": 5715, "\u0120threat": 5716, "(in": 5717, "Strip": 5718, "\u00ec\u013f": 5719, "\u00c3\u00a7\u00c3\u00a3o": 5720, "\u0120evidence": 5721, "));": 5722, "\u0120Bro": 5723, "\u0120ou": 5724, "buf": 5725, "Script": 5726, "dat": 5727, "\u0120rule": 5728, "#import": 5729, "=\"/": 5730, "Serial": 5731, "\u0120starting": 5732, "[index": 5733, "ae": 5734, "\u0120contrib": 5735, "session": 5736, "_new": 5737, "utable": 5738, "ober": 5739, "\u0120\"./": 5740, "\u0120logger": 5741, "\u0120recently": 5742, "\u0120returned": 5743, "\u010d\u010d\u010a": 5744, "itions": 5745, "\u0120seek": 5746, "\u0120communic": 5747, "\u0120\".": 5748, "\u0120username": 5749, "ECT": 5750, "DS": 5751, "\u0120otherwise": 5752, "\u0120German": 5753, ".aw": 5754, "Adapter": 5755, "ixel": 5756, "\u0120systems": 5757, "\u0120drop": 5758, "\u0120structure": 5759, "\u0120$(\"#": 5760, "encies": 5761, "anning": 5762, "\u0120Link": 5763, "\u0120Response": 5764, "\u0120stri": 5765, "\u00c5\u00bc": 5766, "\u0120DB": 5767, "android": 5768, "submit": 5769, "otion": 5770, "(@": 5771, ".test": 5772, "\u010a\u010a\u010a\u010a\u010a\u010a\u010a\u010a": 5773, "\u0120directly": 5774, "\u0120\"%": 5775, "ris": 5776, "elta": 5777, "AIL": 5778, "mine": 5779, "\u0120\u0120\u0120\u0120\u0120\u0120\u0120\u0120\u0120\u0120\u0120\u0120\u0120\u0120\u0120\u0120\u0120\u0120\u0120\u0120\u0120\u0120\u0120\u0120\u0120\u0120": 5780, "(k": 5781, "bon": 5782, "asic": 5783, "pite": 5784, "___": 5785, "Max": 5786, "\u0120errors": 5787, "\u0120While": 5788, "\u0120arguments": 5789, "\u0120ensure": 5790, "Right": 5791, "-based": 5792, "Web": 5793, "\u0120-=": 5794, "\u0120introdu": 5795, "\u0120Inst": 5796, "\u0120Wash": 5797, "ordin": 5798, "join": 5799, "Database": 5800, "\u0120grad": 5801, "\u0120usually": 5802, "ITE": 5803, "Props": 5804, "\u0120Go": 5805, "@Override": 5806, "REF": 5807, "\u0120ip": 5808, "\u0120Austral": 5809, "\u0120ist": 5810, "ViewById": 5811, "\u0120serious": 5812, "\u0120customer": 5813, ".prototype": 5814, "odo": 5815, "cor": 5816, "\u0120door": 5817, "\u0120WITHOUT": 5818, "\u0120plant": 5819, "\u0120began": 5820, "\u0120distance": 5821, "()).": 5822, "\u0120chance": 5823, "\u0120ord": 5824, "came": 5825, "pragma": 5826, "\u0120protect": 5827, "ragment": 5828, "\u0120Node": 5829, "ening": 5830, "\u00d1\u0129": 5831, "\u0120route": 5832, "\u0120School": 5833, "hi": 5834, "\u0120neighb": 5835, "After": 5836, "licit": 5837, "\u0120contr": 5838, "\u0120primary": 5839, "AA": 5840, ".WriteLine": 5841, "utils": 5842, "\u0120bi": 5843, "Red": 5844, ".Linq": 5845, ".object": 5846, "\u0120leaders": 5847, "unities": 5848, "\u0120gun": 5849, "onth": 5850, "\u0120Dev": 5851, "FILE": 5852, "\u0120comments": 5853, "_len": 5854, "arrow": 5855, "amount": 5856, "Range": 5857, "sert": 5858, "GridView": 5859, "\u0120updated": 5860, "\u0120Mo": 5861, "\u0120inform": 5862, "ociety": 5863, "ala": 5864, "Access": 5865, "\u0120hab": 5866, "\u0120creat": 5867, "_arg": 5868, "\u0120January": 5869, "\u0120Day": 5870, "uple": 5871, "document": 5872, "gorith": 5873, "menu": 5874, "\u0120Over": 5875, "bb": 5876, ".title": 5877, "_out": 5878, "\u0120led": 5879, "uri": 5880, "\u0120?></": 5881, "gl": 5882, "\u0120bank": 5883, "ayment": 5884, "\u0109printf": 5885, "MD": 5886, "\u0120sample": 5887, "\u0120hands": 5888, "\u0120Version": 5889, "uario": 5890, "\u0120offers": 5891, "ityEngine": 5892, "\u0120shape": 5893, "\u0120sleep": 5894, "_point": 5895, "Settings": 5896, "\u0120achie": 5897, "\u0120sold": 5898, "ota": 5899, ".bind": 5900, "Am": 5901, "\u0120safe": 5902, "Store": 5903, "\u0120shared": 5904, "\u0120priv": 5905, "_VAL": 5906, "\u0120sens": 5907, "){": 5908, "\u0120remember": 5909, "shared": 5910, "element": 5911, "\u0120shoot": 5912, "Vert": 5913, "cout": 5914, "\u0120env": 5915, "_label": 5916, "run": 5917, "\u0120scene": 5918, "(array": 5919, "device": 5920, "_title": 5921, "agon": 5922, "aby": 5923, "\u0120became": 5924, "boolean": 5925, "\u0120park": 5926, "\u0120Code": 5927, "upload": 5928, "riday": 5929, "\u0120September": 5930, "Fe": 5931, "\u0120sen": 5932, "cing": 5933, "FL": 5934, "Col": 5935, "uts": 5936, "_page": 5937, "inn": 5938, "\u0120implied": 5939, "aling": 5940, "\u0120yourself": 5941, ".Count": 5942, "conf": 5943, "\u0120aud": 5944, "_init": 5945, ".)": 5946, "\u0120wrote": 5947, "NG": 5948, ".Error": 5949, ".for": 5950, "\u0120equal": 5951, "\u0120Request": 5952, "\u0120serial": 5953, "\u0120allows": 5954, "XX": 5955, "\u0120middle": 5956, "chor": 5957, "\u00c3\u00b8": 5958, "erval": 5959, ".Column": 5960, "reading": 5961, "\u0120escort": 5962, "\u0120August": 5963, "\u0120quickly": 5964, "\u0120weap": 5965, "\u0120CG": 5966, "ropri": 5967, "ho": 5968, "\u0120cop": 5969, "(struct": 5970, "\u0120Big": 5971, "\u0120vs": 5972, "\u0120frequ": 5973, ".Value": 5974, "\u0120actions": 5975, "\u0120proper": 5976, "\u0120inn": 5977, "\u0120objects": 5978, "\u0120matrix": 5979, "avascript": 5980, "\u0120ones": 5981, ".group": 5982, "\u0120green": 5983, "\u0120paint": 5984, "ools": 5985, "ycl": 5986, "encode": 5987, "olt": 5988, "comment": 5989, ".api": 5990, "Dir": 5991, "\u0120une": 5992, "izont": 5993, ".position": 5994, "\u0120designed": 5995, "_val": 5996, "avi": 5997, "iring": 5998, "tab": 5999, "\u0120layer": 6000, "\u0120views": 6001, "\u0120reve": 6002, "rael": 6003, "\u0120ON": 6004, "rics": 6005, "np": 6006, "\u0120core": 6007, "Main": 6008, "\u0120expert": 6009, "\u0109\u0109\u010d\u010a": 6010, "_en": 6011, "\u0120/>": 6012, "utter": 6013, "IAL": 6014, "ails": 6015, "\u0120King": 6016, "\u0120Met": 6017, "_end": 6018, "addr": 6019, "ora": 6020, "\u0120ir": 6021, "Min": 6022, "\u0120surpr": 6023, "\u0120repe": 6024, "\u0120directory": 6025, "PUT": 6026, "-S": 6027, "\u0120election": 6028, "haps": 6029, ".pre": 6030, "cm": 6031, "Values": 6032, "column": 6033, "ivil": 6034, "Login": 6035, "inue": 6036, "\u0120beautiful": 6037, "\u0120secret": 6038, "(event": 6039, "\u0120chat": 6040, "ums": 6041, "\u0120origin": 6042, "\u0120effects": 6043, "\u0120management": 6044, "illa": 6045, "tk": 6046, "\u0120setting": 6047, "\u0120Cour": 6048, "\u0120massage": 6049, "\u0109end": 6050, "\u0120happy": 6051, "\u0120finish": 6052, "\u0120camera": 6053, "\u0120Ver": 6054, "\u0120Democr": 6055, "\u0120Her": 6056, "(Q": 6057, "cons": 6058, "ita": 6059, "\u0120'.": 6060, "{}": 6061, "\u0109C": 6062, "\u0120stuff": 6063, "\u0120AR": 6064, "Task": 6065, "hidden": 6066, "eros": 6067, "IGN": 6068, "atio": 6069, "\u0120Health": 6070, "olute": 6071, "Enter": 6072, "'>": 6073, "\u0120Twitter": 6074, "\u0120County": 6075, "scribe": 6076, "\u0120hy": 6077, "fit": 6078, "\u0120military": 6079, "\u0120sale": 6080, "required": 6081, "non": 6082, "bootstrap": 6083, "hold": 6084, "rim": 6085, "-old": 6086, "\u0120Down": 6087, "\u0120mention": 6088, "contact": 6089, "_group": 6090, "oday": 6091, "\u0120town": 6092, "\u0120solution": 6093, "uate": 6094, "elling": 6095, "]->": 6096, "otes": 6097, "ental": 6098, "omen": 6099, "ospital": 6100, "\u0120Sup": 6101, "_EN": 6102, "\u0120slow": 6103, "SESSION": 6104, "\u0120blue": 6105, "ago": 6106, "\u0120lives": 6107, "\u0120^": 6108, ".un": 6109, "inst": 6110, "enge": 6111, "\u0120customers": 6112, "\u0120cast": 6113, "udget": 6114, "\u00ef\u00bc\u0123": 6115, "icens": 6116, "\u0120determin": 6117, "Selected": 6118, "_pl": 6119, "ueue": 6120, "\u0120dark": 6121, "si": 6122, "thern": 6123, "\u0120Japan": 6124, "/w": 6125, "PU": 6126, "\u0120East": 6127, "ovie": 6128, "\u0120package": 6129, "\u0120nor": 6130, "\u0120api": 6131, "bot": 6132, "_post": 6133, "ulate": 6134, "\u0120club": 6135, "\u0120loop": 6136, "PIO": 6137, "ione": 6138, "shot": 6139, "Initial": 6140, "\u0120played": 6141, "register": 6142, "rought": 6143, "_max": 6144, "acement": 6145, "match": 6146, "raphics": 6147, "AST": 6148, "\u0120existing": 6149, "\u0120complex": 6150, "DA": 6151, ".Ch": 6152, ".common": 6153, "mo": 6154, "\u0120'../../": 6155, "ito": 6156, "\u0120analysis": 6157, "\u0120deliver": 6158, "\u0120\u0120\u0120\u0120\u0120\u0120\u0120\u0120\u0120\u0120\u0120\u0120\u0120\u0120\u0120\u0120\u010a": 6159, "idx": 6160, "\u00c3\u0142": 6161, "ongo": 6162, "\u0120English": 6163, "<!--": 6164, "\u0120computer": 6165, "ENSE": 6166, "\u0120pas": 6167, "\u0120rais": 6168, "Hash": 6169, "\u0120mobile": 6170, "\u0120owner": 6171, "FIG": 6172, "\u0120\u0120\u0120\u0120\u0120\u0120\u0120\u0120\u0120\u0120\u0120\u0120\u0120\u0120\u0120\u0120\u0120\u0120\u0120\u0120\u0120\u0120\u0120\u0120\u0120\u0120\u0120\u0120\u0120\u0120\u0120\u0120\u0120\u0120\u0120\u0120\u0120\u0120\u0120\u0120\u0120\u0120\u0120\u0120\u0120\u0120\u0120\u0120\u0120\u0120\u0120": 6173, "thes": 6174, "\u0120attr": 6175, "wd": 6176, ".time": 6177, "awn": 6178, "\u0120treatment": 6179, "\u0120Ac": 6180, ".View": 6181, "impl": 6182, "more": 6183, "pass": 6184, "\u0120ha": 6185, ".from": 6186, "\u0120leading": 6187, "FFFF": 6188, "(error": 6189, ".ui": 6190, "atar": 6191, "aders": 6192, "dates": 6193, "\u0120zu": 6194, "\u0120flow": 6195, "Target": 6196, "\u0120involved": 6197, "\u0120io": 6198, "parse": 6199, "$_": 6200, "hest": 6201, ".int": 6202, "-item": 6203, "asy": 6204, "Sp": 6205, "\u0120shift": 6206, "NT": 6207, "\u0120tf": 6208, "_TR": 6209, ".web": 6210, "CS": 6211, "\u0120})": 6212, "\u0120eyes": 6213, "_z": 6214, "iforn": 6215, "\u0120{@": 6216, "\u0120nice": 6217, ".list": 6218, "\u0120\u0120\u0120\u0120\u010d\u010a": 6219, "\u0120floor": 6220, "\u0120redirect": 6221, "\u0120UK": 6222, "(['": 6223, "\u0120wish": 6224, "\u0120capt": 6225, "legal": 6226, "\u0120IO": 6227, "\u0120stage": 6228, ".String": 6229, "\u0120Afr": 6230, "igen": 6231, "\u0120SH": 6232, "Delete": 6233, "ells": 6234, "\u0120solid": 6235, "\u0120meeting": 6236, "\u0120worked": 6237, "\u0120editor": 6238, "iny": 6239, "\u00d0\u00bc": 6240, "_read": 6241, ".Id": 6242, "eff": 6243, "Offset": 6244, "cha": 6245, "USER": 6246, "\u0109\u0109\u0120\u0120\u0120": 6247, "ipped": 6248, "\u0120dict": 6249, "\u0120Run": 6250, ".hpp": 6251, "\u0120ang": 6252, "xml": 6253, "imple": 6254, "\u0120medical": 6255, "_token": 6256, "connect": 6257, "\u0120hour": 6258, "\u0120controller": 6259, "_message": 6260, "UID": 6261, "Gr": 6262, "anded": 6263, "_CH": 6264, "\u0120books": 6265, "\u0120speak": 6266, "aming": 6267, "\u0120mount": 6268, "Record": 6269, "\u0109struct": 6270, ".Web": 6271, "ondon": 6272, "\u0120felt": 6273, ".Auto": 6274, "idge": 6275, "_pos": 6276, "PR": 6277, "\u0120modern": 6278, "Collection": 6279, "_msg": 6280, "CD": 6281, "\u0120Lo": 6282, "\u0120seconds": 6283, "ibly": 6284, ".equals": 6285, "\u0120international": 6286, "#pragma": 6287, "ooth": 6288, "Writer": 6289, "iate": 6290, "\u0120cele": 6291, "\u0120Bit": 6292, "ivo": 6293, "ivery": 6294, "rd": 6295, "HECK": 6296, "\u0120cache": 6297, ".count": 6298, "\u0120roll": 6299, ".Read": 6300, "RED": 6301, "\u0120setup": 6302, "izontal": 6303, "models": 6304, "argv": 6305, "\u0120considered": 6306, "=\"../": 6307, "settings": 6308, "\u0120Rel": 6309, "\u0120growth": 6310, "\u0120mix": 6311, "\u0120Washington": 6312, "\u0120plt": 6313, "\u0120IM": 6314, "\u00e1\u00ba": 6315, "\u0120turned": 6316, "\u0120DateTime": 6317, "\u0120Wed": 6318, "(url": 6319, "\u0120\"-": 6320, "\u0120letter": 6321, "Async": 6322, "\u0120\u0120\u0120\u0120\u0120\u0120\u0120\u0120\u0120\u0120\u0120\u0120\u0120\u0120\u0120\u0120\u0120\u0120\u0120\u0120\u0120\u0120\u0120\u0120\u0120\u0120\u0120\u0120": 6323, "\u0120October": 6324, "_line": 6325, "\u0120attention": 6326, "\u0120collect": 6327, "\u0120Hash": 6328, "\u0120imag": 6329, "Tree": 6330, "\u0120situation": 6331, "ette": 6332, "_no": 6333, "IVE": 6334, "\u0120von": 6335, ".target": 6336, "\u0120knowledge": 6337, "\u0120drive": 6338, ".post": 6339, "\u0120blood": 6340, "\u0120cit": 6341, "primary": 6342, "\u0120configuration": 6343, "tee": 6344, "\u0120photo": 6345, "isode": 6346, "Trace": 6347, "\u0120gave": 6348, "\u0120shot": 6349, "\u0120Air": 6350, "\u0120mother": 6351, "price": 6352, "\u0120morning": 6353, "-x": 6354, "\u0120trade": 6355, "\u0120desc": 6356, "\u0120parents": 6357, "Api": 6358, "ted": 6359, "wer": 6360, "\u0120sy": 6361, "\u0120Ke": 6362, "Parser": 6363, "ancy": 6364, "\u0120piece": 6365, "ifornia": 6366, "toString": 6367, "ran": 6368, "iding": 6369, "PTION": 6370, "comes": 6371, "/lic": 6372, ".client": 6373, "El": 6374, "Long": 6375, "\u0120professional": 6376, "rupt": 6377, "va": 6378, "\u0120completely": 6379, "\u0120practice": 6380, "\u0120selection": 6381, "Rem": 6382, "ini": 6383, "\u0120cam": 6384, "REE": 6385, "\u0120sites": 6386, "pa": 6387, "ATUS": 6388, "\u00d1\u0123\u00d1\u0124": 6389, "arrant": 6390, "*(": 6391, "_KEY": 6392, "\u0120Button": 6393, "\u0120Friday": 6394, "sequ": 6395, "\u0120reader": 6396, "\u0120messages": 6397, "\u0120buf": 6398, "Ke": 6399, "\u0120nov": 6400, "HP": 6401, "Msg": 6402, "align": 6403, "arily": 6404, "\u0120',": 6405, "_with": 6406, "\u0120das": 6407, "\u0120heard": 6408, "atomic": 6409, "rial": 6410, ")[": 6411, "\u0120dise": 6412, "@end": 6413, "\u0120gold": 6414, "\u0120fair": 6415, "\u0120sales": 6416, ".Button": 6417, "strict": 6418, "save": 6419, "\u0120measure": 6420, "\u0120\"+": 6421, "ecause": 6422, "ViewController": 6423, "\u0120Table": 6424, ".param": 6425, "\u0120decided": 6426, "(((": 6427, "INFO": 6428, "\u0120opportunity": 6429, "Te": 6430, "ICENSE": 6431, "ccording": 6432, "ki": 6433, "\u0120UN": 6434, "\u0120contain": 6435, "\u0120manager": 6436, "\u0120pain": 6437, "\u0120Fire": 6438, "rome": 6439, "\u0120plans": 6440, "Found": 6441, "lay": 6442, "\u0120December": 6443, "\u0120influ": 6444, "\u00c3\u00ba": 6445, "rench": 6446, "\u0120\u0120\u0120\u0120\u0120\u0120\u0120\u0120\u0120\u0120\u0120\u0120\u0120\u0120\u0120\u0120\u0120\u0120\u0120\u0120\u0120\u0120\u0120\u0120\u0120\u0120\u0120\u0120\u0120\u0120\u0120\u0120\u0120": 6447, "azing": 6448, "brief": 6449, "call": 6450, "wood": 6451, "\u0120loaded": 6452, "\u0120grand": 6453, "/f": 6454, "imp": 6455, "_U": 6456, "STR": 6457, "\u00e2\u0122\u00a2": 6458, "\u0120credit": 6459, ".Color": 6460, "orge": 6461, "QUEST": 6462, "\u0120difference": 6463, "\u0120PC": 6464, "wargs": 6465, "\u0120pub": 6466, "unday": 6467, "\u0120fra": 6468, ".max": 6469, "\u0120tried": 6470, "annels": 6471, "send": 6472, "\u0120reports": 6473, "\u0120adult": 6474, "\u0120consist": 6475, "\u0120Street": 6476, "\u0120Program": 6477, "SQL": 6478, "Matrix": 6479, "ouncil": 6480, "-A": 6481, "\u0109w": 6482, "\u0120whose": 6483, "\u0120relig": 6484, "\u0120Sex": 6485, "\u0120gives": 6486, "none": 6487, ".message": 6488, "(G": 6489, ".awt": 6490, "-right": 6491, "\u0120November": 6492, "ellig": 6493, "utive": 6494, "\u00c4\u0125": 6495, "overn": 6496, "\u0120easily": 6497, "\u0120ideas": 6498, "\u0120\u00d0\u00bd": 6499, "/css": 6500, "lying": 6501, "elle": 6502, "Can": 6503, "_color": 6504, "\u0120pair": 6505, "ngth": 6506, "\u0120split": 6507, "drop": 6508, "arty": 6509, "ona": 6510, "\u0120capital": 6511, "\u0120hear": 6512, "\u0120exists": 6513, "\u0109log": 6514, "emo": 6515, "Run": 6516, "oi": 6517, "\u0120parser": 6518, "\u0120Method": 6519, "\u0120education": 6520, "[k": 6521, "\u0120library": 6522, "_UN": 6523, "\u0109std": 6524, "oded": 6525, "\u0120calls": 6526, "here": 6527, "Rel": 6528, "\u0120brand": 6529, "background": 6530, "ga": 6531, "_address": 6532, "_params": 6533, "Category": 6534, "\u0120India": 6535, "_event": 6536, "\u0120ing": 6537, "Render": 6538, ".cl": 6539, "umpy": 6540, "\u0120pet": 6541, "FC": 6542, "\u0120Ant": 6543, "Ext": 6544, "\u0120charge": 6545, "ened": 6546, "grad": 6547, "EO": 6548, "\u0120depend": 6549, "frame": 6550, "\u0120df": 6551, "\u0120huge": 6552, "\u0120PART": 6553, "eds": 6554, ";;": 6555, "\u0120AM": 6556, "\u0120basic": 6557, "\u0120Let": 6558, "lich": 6559, "\u0120arm": 6560, "\u0120star": 6561, "\u0120federal": 6562, "Work": 6563, "\u0120carry": 6564, "\u0120Israel": 6565, "(obj": 6566, "={{": 6567, "\u0120saved": 6568, "\u0120syn": 6569, "\u0120constant": 6570, "VENT": 6571, "\u0120positive": 6572, "\u0120conduct": 6573, "\u0120skin": 6574, "\u0120earlier": 6575, "\u0120layout": 6576, "\u0120IP": 6577, "OUR": 6578, "\u0120tim": 6579, "stylesheet": 6580, "_cl": 6581, "\u0120Card": 6582, "\u0120temper": 6583, "\u0120David": 6584, "\u0109try": 6585, ".dart": 6586, "\u0120wants": 6587, "\u0120picture": 6588, "\u0120videos": 6589, "\u0120Comm": 6590, "isions": 6591, "_MAX": 6592, "Mapping": 6593, "-content": 6594, "\u0120Ear": 6595, "-de": 6596, "\u0120prem": 6597, "bruary": 6598, "\u0120components": 6599, "\u0120throughout": 6600, "\u0120pull": 6601, "\u0120pages": 6602, "ente": 6603, "respond": 6604, "\u0120gas": 6605, "criptor": 6606, "\u0120edge": 6607, "\u0120bound": 6608, "ACT": 6609, "******": 6610, "\u0120creating": 6611, "\u0120CH": 6612, "\u0120nullptr": 6613, "Br": 6614, "+'": 6615, ".co": 6616, ">::": 6617, "\u0120learning": 6618, ".Length": 6619, "_SH": 6620, "\u0120patients": 6621, "AIN": 6622, "\u0120kids": 6623, "\u0120comfort": 6624, "\u0120shown": 6625, "ugins": 6626, "\u0120Back": 6627, "ella": 6628, "_CL": 6629, "\u0120lat": 6630, "\u0120dispatch": 6631, "\u0120classes": 6632, ".at": 6633, ".begin": 6634, "\u0120successful": 6635, "ban": 6636, "\u0120obtain": 6637, "\u0120Sl": 6638, "\u0120lack": 6639, "iterator": 6640, "Thread": 6641, "(size": 6642, "\u0120none": 6643, ".has": 6644, "_X": 6645, "sort": 6646, "nap": 6647, "pet": 6648, "bin": 6649, "\u0120Canada": 6650, "They": 6651, "\u0120dans": 6652, "\u0120Mat": 6653, "<td": 6654, "\u0120hair": 6655, "\u0120cu": 6656, "\u0120laws": 6657, "leted": 6658, "ped": 6659, "\u0120pow": 6660, "\u0120knew": 6661, "_COM": 6662, "_,": 6663, "\u0120Mag": 6664, "idents": 6665, "(req": 6666, "\u0120),": 6667, "-center": 6668, "\u0120wide": 6669, "\u0120Author": 6670, "stants": 6671, "\u0120jobs": 6672, "\u0120math": 6673, "etimes": 6674, "Boolean": 6675, "\u0120scope": 6676, "_is": 6677, "\u0120meas": 6678, "\u0120keys": 6679, "elay": 6680, "\u0120exactly": 6681, "'=>'": 6682, "\u0120Paul": 6683, "mas": 6684, "\u0109print": 6685, "(len": 6686, "fd": 6687, "\u0120);": 6688, ".Event": 6689, "qli": 6690, "irit": 6691, "ields": 6692, "oman": 6693, "\u0120Top": 6694, "\u0120vote": 6695, "\u0120mask": 6696, "\u0120theme": 6697, "\u0120props": 6698, "\u0120fine": 6699, "\u0120writer": 6700, "_offset": 6701, "car": 6702, "\u0120altern": 6703, "\u0120copyright": 6704, "\u0120destroy": 6705, "pper": 6706, "\u0120generate": 6707, "pped": 6708, "\u00e2\u0122\u013bd": 6709, "\u0120\u0120\u0120\u0120\u0120\u0120\u010a": 6710, "make": 6711, "\u0120Show": 6712, "\u0120browser": 6713, "\u0120favorite": 6714, "\u0120career": 6715, "\u0120happened": 6716, "(char": 6717, "\u0120recommend": 6718, "\u0120liter": 6719, ".filter": 6720, "grade": 6721, "\u0120\u00c2\u00a3": 6722, "Phone": 6723, "oms": 6724, "\u0120named": 6725, "-label": 6726, "ipo": 6727, "\u0120Other": 6728, "\u0120panel": 6729, "\u0120rock": 6730, "Scale": 6731, "\u0109assert": 6732, "\u00d0\u00b4": 6733, "\u0120trust": 6734, "front": 6735, "\u0120demon": 6736, "Ar": 6737, "Net": 6738, "\u0120economic": 6739, "footer": 6740, "\u0120race": 6741, "(node": 6742, "\u0120Option": 6743, "split": 6744, "\u0120physical": 6745, "ifest": 6746, "\u0120removed": 6747, ".http": 6748, "\u0120looked": 6749, "';": 6750, "ding": 6751, "gest": 6752, "aturday": 6753, "/licenses": 6754, "Price": 6755, "\u0120dro": 6756, "\u0120towards": 6757, "\u0120uns": 6758, "\u0120CL": 6759, "\u0109static": 6760, "\u0120rows": 6761, "\u0120define": 6762, ".replace": 6763, "\u0120father": 6764, "\u0120Design": 6765, "assign": 6766, "mut": 6767, "Device": 6768, "Did": 6769, "ometry": 6770, "ayload": 6771, "\u0120histor": 6772, "\u0120Param": 6773, "\u0120Boolean": 6774, "\u0120nature": 6775, "\u0120js": 6776, "\u0120nation": 6777, "ih": 6778, "\u0120discover": 6779, "sem": 6780, "Handle": 6781, "\u0109r": 6782, "\u0120Techn": 6783, "\u0120wall": 6784, "{$": 6785, "@property": 6786, "\u0120\"../": 6787, "\u0120exam": 6788, ".draw": 6789, "opping": 6790, "\u0120nearly": 6791, "\u0120cool": 6792, "\u0120independ": 6793, "RES": 6794, "\u0120handler": 6795, "\u0120Monday": 6796, "\u0120sun": 6797, "Styles": 6798, "ously": 6799, "\u0120\u0109": 6800, "vest": 6801, "Display": 6802, "(y": 6803, "atically": 6804, "\u0120predict": 6805, "ying": 6806, "\u0120sometimes": 6807, "\u0120drink": 6808, "\u0120bul": 6809, "ifications": 6810, ".insert": 6811, ".reg": 6812, "\u0120tests": 6813, "Alignment": 6814, "\u0120alleg": 6815, "\u0120attribute": 6816, "\u0120Note": 6817, "\u0120myself": 6818, "arts": 6819, "Now": 6820, "\u0120interesting": 6821, "lients": 6822, "\u0120population": 6823, "\u0120California": 6824, "\"I": 6825, "\u0120greater": 6826, "uesday": 6827, "\u0120thous": 6828, "\u0120costs": 6829, "\u0120launch": 6830, "\\Http": 6831, "ker": 6832, "band": 6833, "\u0120Play": 6834, "\u0120band": 6835, ".shape": 6836, "esome": 6837, "article": 6838, ".rf": 6839, "\u0120wer": 6840, "\u00c3\u00a1s": 6841, "embers": 6842, "usr": 6843, "BA": 6844, "ican": 6845, "ett": 6846, "validate": 6847, "ulti": 6848, "\u0120immediately": 6849, "zer": 6850, "\u0120figure": 6851, "oes": 6852, "eller": 6853, "ircle": 6854, "\u0120Sign": 6855, ".db": 6856, "\u0120rank": 6857, "Bytes": 6858, "\u0120projects": 6859, "_rec": 6860, "ULAR": 6861, "API": 6862, "\u0120Line": 6863, "Port": 6864, "\u0120poll": 6865, "\u0120giving": 6866, "idence": 6867, "\u0120plot": 6868, "icial": 6869, "\u0120warrant": 6870, "ITION": 6871, "\u0120Double": 6872, "\u0120billion": 6873, "gorithm": 6874, "\u0120equipment": 6875, "DATE": 6876, "\u0120@\"": 6877, "EE": 6878, "\u0120ple": 6879, "iation": 6880, "\u0120headers": 6881, "\u0120proced": 6882, ".ComponentModel": 6883, "\u0120Obama": 6884, "\u0120pa": 6885, "\u0120Best": 6886, "imately": 6887, ".getString": 6888, ".\\": 6889, "mploy": 6890, "\u0120raw": 6891, "_block": 6892, "undred": 6893, ".GroupLayout": 6894, "\u0120brought": 6895, "NSString": 6896, "throw": 6897, "created": 6898, ".New": 6899, "_view": 6900, "CP": 6901, "eps": 6902, "Op": 6903, "\u0120gratis": 6904, "\u0120'\"": 6905, "\u0120interview": 6906, "\u0120partial": 6907, "\u0120aria": 6908, "bing": 6909, "Author": 6910, "Book": 6911, "\u0120Pat": 6912, "uman": 6913, "Users": 6914, "plus": 6915, "\u0120Direct": 6916, "venue": 6917, "alpha": 6918, "UCCESS": 6919, "\u0120Call": 6920, "imated": 6921, "\u0120remain": 6922, "\u0120anti": 6923, "\u0120London": 6924, "\u0120safety": 6925, "POSE": 6926, "oles": 6927, "controller": 6928, "Byte": 6929, "\u0120Court": 6930, "\u0120Phil": 6931, "\u0120Associ": 6932, "ena": 6933, "_STR": 6934, "coin": 6935, "reshold": 6936, "\u0120batch": 6937, "_Click": 6938, "entication": 6939, "enty": 6940, "\u0120beginning": 6941, "\u0120zero": 6942, "\u0120Convert": 6943, "\u0120terr": 6944, "\u0120paid": 6945, "\u0120increased": 6946, "catch": 6947, "-size": 6948, "activity": 6949, "equals": 6950, "\u0120queue": 6951, "\u0120\"'": 6952, "\u0120International": 6953, "\u0120f\u00c3\u00bcr": 6954, "ursday": 6955, "\u0120scient": 6956, "allow": 6957, "axis": 6958, "\u0120appropri": 6959, "edge": 6960, "\u0120idx": 6961, "Success": 6962, "entifier": 6963, ":\\": 6964, "xis": 6965, "\u0120maximum": 6966, "arks": 6967, "\u0120birth": 6968, "(index": 6969, "\u0120maybe": 6970, ".py": 6971, "files": 6972, "\u0120limited": 6973, "_check": 6974, "look": 6975, "plies": 6976, "\u0120movement": 6977, "'].": 6978, "\u0120broad": 6979, "\u0120BE": 6980, "\u0120UnityEngine": 6981, ".cpp": 6982, "\u0120Every": 6983, "Admin": 6984, "\u0120fans": 6985, "pared": 6986, "\u010a\u0120\u0120\u0120\u0120\u010a": 6987, "\u0120foreign": 6988, "\u0120pan": 6989, "\u0120tour": 6990, "\u0120Order": 6991, "\u0120moving": 6992, "\u0120auf": 6993, "Call": 6994, "cb": 6995, "\u00c5\u0141": 6996, "ventory": 6997, "\u0120Sql": 6998, "\u0120fully": 6999, "ClickListener": 7000, "WORD": 7001, "\u0120announced": 7002, "\u0120agreed": 7003, "rie": 7004, "\u0120earn": 7005, "_link": 7006, ".array": 7007, "(text": 7008, "\u0120materials": 7009, ",p": 7010, "ffff": 7011, "vg": 7012, "\u0120\u00c2\u00a9": 7013, "\u0120unless": 7014, "ajax": 7015, "LOG": 7016, "\u0120sexual": 7017, "\u0120\\\"": 7018, "-time": 7019, "\u0120coach": 7020, "\u0120supported": 7021, "\u0120photos": 7022, "iform": 7023, ".Create": 7024, ")]": 7025, "rier": 7026, "\u0120dialog": 7027, "aver": 7028, "ige": 7029, ")+": 7030, "_idx": 7031, ":[": 7032, "_min": 7033, "\u0120Cong": 7034, "\u0120pressure": 7035, "\u0120teams": 7036, "Sign": 7037, "begin": 7038, "rian": 7039, "NESS": 7040, "LS": 7041, "\u0120improve": 7042, "\u0120Sunday": 7043, "\u0120definition": 7044, "iger": 7045, "rollers": 7046, "\u0120thinking": 7047, "Template": 7048, "-F": 7049, "\u0120emerg": 7050, "plates": 7051, "\u0120USA": 7052, ".setState": 7053, "\u0120Also": 7054, "rev": 7055, "\u0120enable": 7056, "\u0120CO": 7057, "PECT": 7058, "\u0120concept": 7059, ")-": 7060, "\u0120\u00e2\u0122\u00a2": 7061, "\u0120sets": 7062, "\u0120meaning": 7063, "emon": 7064, "\u0120Cons": 7065, "cmp": 7066, "eder": 7067, "anned": 7068, "icensed": 7069, "\u0120Super": 7070, "\u0120daily": 7071, "\u0120multi": 7072, "_u": 7073, "\u0120challeng": 7074, "_mode": 7075, "\u0120Promise": 7076, "\u0120strict": 7077, "jo": 7078, "inton": 7079, "(list": 7080, "Only": 7081, ">{": 7082, "\u0120vehicle": 7083, "\u00ed\u0137": 7084, "\u0120Player": 7085, "\u0120Del": 7086, "\u0120pool": 7087, ".url": 7088, "nesday": 7089, "Local": 7090, "\u0120organization": 7091, "render": 7092, "\u0120Application": 7093, "\u0120summer": 7094, "expected": 7095, "NA": 7096, "\u0120rap": 7097, "_obj": 7098, "\u0120surface": 7099, "\u0120PUR": 7100, "\u0120variables": 7101, "(message": 7102, "\u0120opin": 7103, ".back": 7104, "\u00d0\u00b0\u00d0\u00bd": 7105, "\u0120workers": 7106, "vm": 7107, "Co": 7108, "ughter": 7109, "\u0120master": 7110, "\u0120\"\",": 7111, "\u0120stories": 7112, ".User": 7113, "\u0120celebr": 7114, "inese": 7115, "BS": 7116, "\u0120Command": 7117, "ashboard": 7118, "\u0120og": 7119, "kg": 7120, ".image": 7121, ".style": 7122, "\u0120steps": 7123, "\u0120Ben": 7124, "(args": 7125, "\u0120Person": 7126, ",y": 7127, "\u0120officials": 7128, "\u0120skills": 7129, "vc": 7130, "\u0120builder": 7131, "\u0120gar": 7132, "Account": 7133, "\u0120Auth": 7134, "\u0120AT": 7135, "nn": 7136, ".Int": 7137, "SSERT": 7138, "\u0120effective": 7139, "LETE": 7140, "\u0120tools": 7141, "ARD": 7142, "\u0120digital": 7143, "Double": 7144, "\u0120Find": 7145, "RC": 7146, "\u0120inline": 7147, "/r": 7148, "ARAM": 7149, "ASK": 7150, "\u0120intent": 7151, "aight": 7152, "_addr": 7153, "\u0120requests": 7154, ".first": 7155, "\u0120debug": 7156, "\u0120spent": 7157, "\u00c5\u013d": 7158, "\u0120princip": 7159, "Logger": 7160, "cludes": 7161, ".use": 7162, "\u0120surv": 7163, "media": 7164, "\u0120February": 7165, "\u0120Mac": 7166, "\u0120missing": 7167, "\u0120wife": 7168, "\u0120talking": 7169, "\u0120Make": 7170, "\u0120cart": 7171, "\u0120located": 7172, "Enc": 7173, "-a": 7174, "chron": 7175, "\u0120cards": 7176, "\u0120guy": 7177, "\u0120pers": 7178, "\u0120Yes": 7179, "atever": 7180, "\u0120Ang": 7181, "olar": 7182, "\u0120Even": 7183, "\u0120accur": 7184, "\u0120Power": 7185, "\u0120Gold": 7186, "clear": 7187, "Process": 7188, "\u0120records": 7189, "\u0120killed": 7190, ".clear": 7191, "\u0120WARRANTIES": 7192, "\u0120purpose": 7193, "panel": 7194, "JECT": 7195, "\u00c3\u0143a": 7196, "\u0120exerc": 7197, "WS": 7198, "/L": 7199, ".exports": 7200, "\u0120___": 7201, "\u0120sin": 7202, "Servlet": 7203, "\u0120d\u00c3\u00a9": 7204, ".delete": 7205, "roke": 7206, "Sl": 7207, "ugh": 7208, "ears": 7209, "\u0120pointer": 7210, "\u0120hop": 7211, "allery": 7212, "\u0120obs": 7213, "covery": 7214, "\u0109char": 7215, "\u0109\u0109\u0109\u0109\u0109\u0109\u0109\u0109\u0109\u0109": 7216, "\u0109def": 7217, "ocity": 7218, "itchen": 7219, "ulations": 7220, "\u0120FIT": 7221, "\u0120).": 7222, "straints": 7223, "vention": 7224, "\u0120requires": 7225, "\u0120Oper": 7226, "ME": 7227, "OUNT": 7228, "allet": 7229, "\u0120norm": 7230, "IRE": 7231, "exas": 7232, "\u0120programs": 7233, "\u0120weak": 7234, "'.$": 7235, "uing": 7236, "\u0109\u0120\u0120\u0120\u0120\u0120\u0120\u0120": 7237, "\u0120mil": 7238, "\u0120firm": 7239, "initely": 7240, "_VALUE": 7241, "apse": 7242, "atisf": 7243, "\u0120demand": 7244, "_mod": 7245, "\u0120described": 7246, "\u0120places": 7247, "VID": 7248, "\u0120alone": 7249, "\u0120export": 7250, "\u0120vec": 7251, "\u0120Max": 7252, "\u0120activities": 7253, "ictures": 7254, "gener": 7255, "\u0120ma": 7256, "\u0124\u00ac": 7257, "\u0120expression": 7258, "Callback": 7259, "_content": 7260, "\u0120Most": 7261, "\u0120testing": 7262, "EC": 7263, "CHANT": 7264, "\u0120adjust": 7265, ".Threading": 7266, "(ctx": 7267, "\u0120agree": 7268, "ighest": 7269, "\u0120ui": 7270, "\u0120Law": 7271, ".Y": 7272, "><?": 7273, "\u0120pod": 7274, "-lg": 7275, "\u0120describe": 7276, "\u0120European": 7277, "-sh": 7278, "\u0120PURPOSE": 7279, "ORY": 7280, "\u0120convers": 7281, "\u0120Illuminate": 7282, "\u0120Av": 7283, "(ch": 7284, "?\"": 7285, "chen": 7286, "ima": 7287, "Document": 7288, "\u0120operations": 7289, "win": 7290, "\u0109function": 7291, ".Image": 7292, "\u0120scen": 7293, "/h": 7294, "\u0120SC": 7295, "\u0120explo": 7296, ":%": 7297, "NAME": 7298, "(var": 7299, "\u0120director": 7300, "ONG": 7301, "\u0120yield": 7302, "\u0120feet": 7303, "\u0120Search": 7304, "\u0120Il": 7305, "\u0120restaur": 7306, "duc": 7307, "\u0120integer": 7308, "\u0120highly": 7309, "checked": 7310, "\u0120PARTIC": 7311, "ERCHANT": 7312, "\u00ef\u00bc\u012b": 7313, "\u0120optim": 7314, "Queue": 7315, "\u0120LI": 7316, "itation": 7317, "\u0120transport": 7318, "ission": 7319, "fill": 7320, "usion": 7321, "\u0120\u0120\u0120\u0120\u0120\u0120\u0120\u0120\u0120\u0120\u0120\u0120\u0120\u0120\u0120\u0120\u0120\u0120\u0120\u0120\u0120\u0120\u0120\u0120\u0120\u0120\u0120\u0120\u0120\u0120": 7322, "\u0109bool": 7323, "-th": 7324, "upt": 7325, "\u0120essential": 7326, "anted": 7327, "\u0120benefits": 7328, "\u0109S": 7329, "iki": 7330, "\u0120girls": 7331, "iced": 7332, "buffer": 7333, "]+": 7334, "\u0120socket": 7335, "\u0120prices": 7336, "\u0120Fre": 7337, "\u0120sat": 7338, "\u0120wood": 7339, "MenuItem": 7340, "ARG": 7341, "\u0120Admin": 7342, "OWN": 7343, "dk": 7344, "\u0120reset": 7345, "\u0120forms": 7346, "\u0120\u00d0\u00b8": 7347, "\u0120Tuesday": 7348, "\u0120Initialized": 7349, "_train": 7350, "orary": 7351, "ategor": 7352, "\u0120dt": 7353, "Total": 7354, "construct": 7355, "ilies": 7356, "\u0120guys": 7357, "\u00d0\u00b5\u00d1\u0122": 7358, "\u0120instruction": 7359, "yled": 7360, "\u0120internet": 7361, "etadata": 7362, "ady": 7363, "faces": 7364, "jection": 7365, "\u0120Jack": 7366, "\u0120rect": 7367, "[-": 7368, "\u0120Leg": 7369, "\u0120devices": 7370, "OC": 7371, "oration": 7372, "ertain": 7373, "\u0120guard": 7374, "ostream": 7375, "\u0120enum": 7376, ".layout": 7377, "voke": 7378, "\u0120Ok": 7379, "Home": 7380, "(tr": 7381, "ETH": 7382, "\u0120delay": 7383, "\u0120purchase": 7384, "dc": 7385, "\u0120aren": 7386, "_once": 7387, "\u0109\u0109\u0109\u0109\u010a": 7388, "ror": 7389, "draw": 7390, ".run": 7391, "(model": 7392, "Timeout": 7393, "lik": 7394, "\u0120Arg": 7395, ".en": 7396, "\u0120fish": 7397, "cpy": 7398, "_fe": 7399, "ERCHANTABILITY": 7400, "(X": 7401, "_output": 7402, "??": 7403, "\u0120jo": 7404, "andard": 7405, "\u0120doll": 7406, "errors": 7407, "_base": 7408, "\u0120PARTICULAR": 7409, "\u0120leader": 7410, "\u0120compar": 7411, "\u0120doub": 7412, "\u0120Vis": 7413, "StackTrace": 7414, "-C": 7415, "\u0120Stud": 7416, "stitute": 7417, "More": 7418, "\u0120Description": 7419, "WARE": 7420, "ads": 7421, "\u0120\u00d0\u00ba": 7422, "bind": 7423, "=self": 7424, "employ": 7425, "[n": 7426, ".all": 7427, "-B": 7428, "&&": 7429, "alm": 7430, "\u0120culture": 7431, "house": 7432, "\u0120suffer": 7433, "\u0120'%": 7434, "\u0120straight": 7435, "\u0120Star": 7436, "udo": 7437, "\u0120ded": 7438, "\u0120COM": 7439, "\u0120confirm": 7440, "\u0120Good": 7441, ".sc": 7442, "________________": 7443, "DR": 7444, "Configuration": 7445, "DateTime": 7446, "\u0120advert": 7447, "\u0120couldn": 7448, "async": 7449, "stack": 7450, "Kit": 7451, "\u0120hous": 7452, "\u0120mechan": 7453, "rate": 7454, "\u0120audio": 7455, "\u0109cout": 7456, "cores": 7457, "\u0120spot": 7458, "\u0120increasing": 7459, "\u0120##": 7460, ")))": 7461, "points": 7462, "\u0120compared": 7463, "lig": 7464, "\u0120behavior": 7465, "\u0120BY": 7466, "\u0120Att": 7467, "craft": 7468, "headers": 7469, "ete": 7470, "endregion": 7471, "\u0120detail": 7472, "ULE": 7473, "\u0120Common": 7474, "\u0109protected": 7475, "ston": 7476, "\u0120FITNESS": 7477, "\u0120fresh": 7478, ".example": 7479, "berg": 7480, "\u0120moved": 7481, "\u0109e": 7482, "\u0120Saturday": 7483, "\u0120payload": 7484, "\u00c4\u0129": 7485, "\u0120bey": 7486, "urer": 7487, "<script": 7488, "\u0120symbol": 7489, "\u0120assum": 7490, "\u0120pul": 7491, "Effect": 7492, "\u0120hundred": 7493, "Tool": 7494, "aked": 7495, "connection": 7496, "\u0120voice": 7497, "\u0120pd": 7498, "\u0120transaction": 7499, "\u0120links": 7500, "Err": 7501, "\u0120Indian": 7502, "TC": 7503, "atalog": 7504, "ni": 7505, "sign": 7506, "<<\"": 7507, "ji": 7508, "ya": 7509, "\u0120demonstr": 7510, "ulated": 7511, ".St": 7512, "\u0120instit": 7513, "\u0120boost": 7514, "\u0120cells": 7515, "olic": 7516, ".Pro": 7517, ":</": 7518, "EventListener": 7519, "ifying": 7520, "\u0120Di": 7521, "orrow": 7522, ".execute": 7523, "\u0120college": 7524, "Your": 7525, "\u0120largest": 7526, ".dis": 7527, "\u0120qui": 7528, "\u0120individuals": 7529, "_buffer": 7530, "\u0120ng": 7531, "SA": 7532, "\u0120Control": 7533, "\u0120sing": 7534, "\u0120suit": 7535, "\u0120\u0120\u0120\u0120\u0109": 7536, "SG": 7537, "\u0120jump": 7538, "\u0120smart": 7539, "oma": 7540, "\u0120Exp": 7541, "\u0120'-": 7542, "\u0120assist": 7543, "\u0120successfully": 7544, "sys": 7545, "\u0120Cre": 7546, "_ref": 7547, "\u0120Thursday": 7548, "\u0120bur": 7549, "\u0120\u00d0\u00b4": 7550, "\u0120beyond": 7551, "\u0120nodes": 7552, "Details": 7553, "inct": 7554, "\u0120James": 7555, "\u0120affect": 7556, "exception": 7557, "\u0120typeof": 7558, "-se": 7559, "\u0120fetch": 7560, "`,": 7561, "\u0120crusher": 7562, "}.": 7563, "\u0120BO": 7564, "Show": 7565, "\u0120rates": 7566, "\u0120bon": 7567, "-icon": 7568, "\u0120Media": 7569, "RESS": 7570, "\u0120Valid": 7571, "\u0120fuck": 7572, "acks": 7573, "\u0120studies": 7574, "Me": 7575, "\u0120owners": 7576, "}else": 7577, "\u0120growing": 7578, "Variable": 7579, "\u0120Bel": 7580, ".random": 7581, "vement": 7582, "onym": 7583, "(F": 7584, "\u0120FALSE": 7585, "\u0120torch": 7586, "(row": 7587, "igo": 7588, "structure": 7589, "\u0120certainly": 7590, "Dep": 7591, "\u0120Green": 7592, "question": 7593, "\u0120adding": 7594, "\u0120Develop": 7595, "_def": 7596, "\u0120mach": 7597, "=%": 7598, "\u0109\u0109\u0120": 7599, "conds": 7600, "Project": 7601, "\u0120reject": 7602, "\u0120\u00ce": 7603, "\u0120poor": 7604, "\u0120aware": 7605, "\u0120Build": 7606, "\u0120British": 7607, "\u0120NE": 7608, "\u0120numer": 7609, "rees": 7610, "claim": 7611, "\u0120mock": 7612, "\u0120om": 7613, "\u0120scre": 7614, "OLD": 7615, ".pl": 7616, "eler": 7617, "\u0120correspond": 7618, "_HE": 7619, "\u0120binary": 7620, "_order": 7621, "\u0120SQL": 7622, "\u0120advant": 7623, "\u0120prev": 7624, ".[": 7625, ".assertEqual": 7626, "plier": 7627, "arp": 7628, "\u0120closed": 7629, "\u0120encour": 7630, "\u0120QString": 7631, "aud": 7632, "\u0120developed": 7633, "\u0120permission": 7634, ".debug": 7635, "operator": 7636, "\u0120sym": 7637, "atively": 7638, "\u00c3\u00a9e": 7639, "-color": 7640, "\u0120GET": 7641, "ky": 7642, "\u0120although": 7643, "_request": 7644, "_element": 7645, "................": 7646, "_DATA": 7647, "\u0120amazing": 7648, "\u0120sb": 7649, "\u0120Default": 7650, "Events": 7651, "\u0120failure": 7652, "acle": 7653, "Properties": 7654, "\u0120dream": 7655, "\u0120distr": 7656, "\u0120au": 7657, "\u0120generated": 7658, "\u0120Team": 7659, "USE": 7660, "\u0120income": 7661, "\u0120eye": 7662, "_not": 7663, "\"],": 7664, "_form": 7665, "Support": 7666, "orders": 7667, ".Print": 7668, "ville": 7669, "\u0120Wednesday": 7670, "olver": 7671, "\u0120oppos": 7672, "isation": 7673, "ola": 7674, "Close": 7675, "<p": 7676, "_width": 7677, "Invalid": 7678, "xb": 7679, "\u0120strugg": 7680, "_action": 7681, "\u0120txt": 7682, "\u0120Path": 7683, "alar": 7684, "\u0120MERCHANTABILITY": 7685, "service": 7686, "\u0120Michael": 7687, "ableView": 7688, "Debug": 7689, "okes": 7690, "She": 7691, "\u0120guess": 7692, "\u0120Java": 7693, "_PATH": 7694, "\u0120particularly": 7695, "\u0120II": 7696, "\u0120domain": 7697, "\u0120reduce": 7698, "-left": 7699, "real": 7700, "\u0120appears": 7701, "\u0120como": 7702, "\u0120Unit": 7703, "\u0120Govern": 7704, "ali": 7705, "allel": 7706, "\u0120Jew": 7707, "_I": 7708, "\u0120cos": 7709, ".color": 7710, "\u0120Global": 7711, "\u0120tele": 7712, "ben": 7713, "_trans": 7714, "\u0120reasons": 7715, "\u0120emb": 7716, "ensity": 7717, "lines": 7718, "omin": 7719, "Screen": 7720, "\u00d0\u00b0\u00d1\u0124": 7721, "pects": 7722, "clip": 7723, "foo": 7724, "rent": 7725, "\u0120af": 7726, "\u0120danger": 7727, "iling": 7728, "Names": 7729, "Our": 7730, "\u0120distribution": 7731, "While": 7732, "SL": 7733, "Write": 7734, "\u0120goto": 7735, "\u0120colors": 7736, "\u0120powerful": 7737, "kin": 7738, "\u0120depth": 7739, "ercial": 7740, "\u0120Congress": 7741, "\u0120Market": 7742, "Db": 7743, "under": 7744, "\u0120Last": 7745, "\u00c3\u0141": 7746, "greg": 7747, "\u0120posts": 7748, "_URL": 7749, "otos": 7750, "Don": 7751, "\u0120micro": 7752, "\u0120arrest": 7753, "\u00d0\u00bf": 7754, "\u0120(@": 7755, "\u0120Hot": 7756, "\u0120Index": 7757, ";&": 7758, "#!": 7759, "\u0120Nor": 7760, "\u0120Cap": 7761, "-(": 7762, "\u0120interested": 7763, "pear": 7764, "\u0120rent": 7765, "\u0120album": 7766, "olicy": 7767, ".lang": 7768, ".trans": 7769, ".format": 7770, "phere": 7771, "\u0120axis": 7772, "\u0120Business": 7773, "ersistence": 7774, "urr": 7775, "\u0120minimum": 7776, "endor": 7777, "\u0120SD": 7778, "\u0120Internet": 7779, "Exp": 7780, "iverse": 7781, "MM": 7782, "\u0120obvious": 7783, "\u0120basis": 7784, "\u0120science": 7785, "\u0120budget": 7786, "izations": 7787, "PA": 7788, "\u0120flags": 7789, "pret": 7790, "LOCK": 7791, "\u0120variety": 7792, "\u0120truth": 7793, "dt": 7794, "\u0120gone": 7795, "\u0120battle": 7796, "<std": 7797, "\u0120Sil": 7798, "rf": 7799, "uda": 7800, "\u0120erot": 7801, "\u0120Cam": 7802, "\u0120station": 7803, "\u0120'</": 7804, "cheme": 7805, "\u0120Sun": 7806, "\u0120finished": 7807, "\u0120shop": 7808, "\u0120Kore": 7809, "\u0120eight": 7810, "_REG": 7811, "ND": 7812, ">,": 7813, "\"><?": 7814, "(num": 7815, "\u0109inline": 7816, "Transaction": 7817, ".On": 7818, "\u0120mail": 7819, "rey": 7820, "results": 7821, "\u0120nav": 7822, "IMIT": 7823, "_ids": 7824, "Make": 7825, "Modal": 7826, "\u0120LOG": 7827, "\u0120Sur": 7828, "\u0120instanceof": 7829, "\u0120overall": 7830, "\u0120Information": 7831, "\u0120construction": 7832, "_FILE": 7833, "but": 7834, "\u0120medic": 7835, "\u0120duration": 7836, "itness": 7837, "agent": 7838, "AV": 7839, "\u0120seven": 7840, "olf": 7841, "\u0120calling": 7842, "\u0120ans": 7843, "throws": 7844, "orizontal": 7845, "\u0120useState": 7846, ".fl": 7847, "\u0120Status": 7848, "\u0120Online": 7849, "RR": 7850, "\u0120Rich": 7851, "\u0120Hill": 7852, "\u0120brain": 7853, "\u0120followed": 7854, "emic": 7855, "\u0120slight": 7856, "\u0120insurance": 7857, ".Array": 7858, "\u0120abstract": 7859, "\u0120Sum": 7860, "redirect": 7861, "owner": 7862, "(msg": 7863, "\u0120Clinton": 7864, "Non": 7865, "\u0109ex": 7866, "\u0120volume": 7867, "\u0120EventArgs": 7868, "-L": 7869, "\u0120Dim": 7870, "\u0120Mart": 7871, "\u0120cursor": 7872, "\u0120implementation": 7873, "urred": 7874, "\u0120larger": 7875, "'+": 7876, ".transform": 7877, "\u0120upload": 7878, "\u0120\u0120\u0120\u0120\u0120\u0120\u0120\u0120\u0120\u0120\u0120\u0120\u0120\u0120\u0120\u0120\u0120\u0120\u0120\u0120\u0120\u0120\u0120\u0120\u0120\u0120\u0120\u0120\u0120\u0120\u0120\u0120\u0120\u0120\u0120\u0120\u0120\u0120\u0120\u0120\u0120\u0120\u0120\u0120\u0120\u0120\u0120\u0120\u0120\u0120\u0120\u0120\u0120\u0120\u0120": 7879, "Draw": 7880, "nel": 7881, "\u0109float": 7882, "qrt": 7883, "\u0120Network": 7884, "\u0120tit": 7885, "Axis": 7886, ".android": 7887, "\u0120completed": 7888, "\u0120mur": 7889, "\u0120columns": 7890, "xc": 7891, "\u0120supply": 7892, "iminal": 7893, "\u0120spr": 7894, "================================================================": 7895, "\u0120units": 7896, "(u": 7897, "mi": 7898, "replace": 7899, "[key": 7900, "\u00e0\u00b9": 7901, "antic": 7902, "\u0120payment": 7903, ",B": 7904, "\u0120Apple": 7905, "gin": 7906, "Required": 7907, "#+": 7908, "lands": 7909, "\u0120squ": 7910, "\u0120factor": 7911, "dec": 7912, "\u0120strength": 7913, "\u0120boy": 7914, "\u0120balance": 7915, "\u0120sources": 7916, "screen": 7917, "-top": 7918, "\u0120Amazon": 7919, "\u0120hidden": 7920, "\u00d0\u00b5\u00d1\u0124": 7921, "_client": 7922, "\u0120eat": 7923, ".display": 7924, "\u0120\u00c2\u00bb": 7925, "\u0120trigger": 7926, "anager": 7927, "\u0120tro": 7928, "\u0120claims": 7929, "ford": 7930, "\u0120Company": 7931, "\u0120gift": 7932, ",:": 7933, "_app": 7934, "handle": 7935, "\u0120produce": 7936, "/lib": 7937, "\u0120-*": 7938, "\u0109set": 7939, "'];": 7940, "arc": 7941, "ander": 7942, "\u0120Engine": 7943, "\u0120attributes": 7944, "task": 7945, "<=": 7946, "(N": 7947, "\u0120warm": 7948, "which": 7949, "\u0120Fore": 7950, "agnost": 7951, "mys": 7952, "\u0120tal": 7953, "\u0120Sal": 7954, "gi": 7955, "\u0120Print": 7956, "\u0120TRUE": 7957, "\u0120\u00d0\u00be": 7958, ".UI": 7959, "\u0120flash": 7960, "roperty": 7961, ".location": 7962, "\u0120Mill": 7963, "bi": 7964, "contr": 7965, ".request": 7966, "\u0120Sam": 7967, "\u0120negative": 7968, "kit": 7969, "\u0120sett": 7970, ".printStackTrace": 7971, "abe": 7972, "\u0109i": 7973, "\u0120burn": 7974, "\u0120society": 7975, "Cache": 7976, "\u0120Security": 7977, ".models": 7978, "\u0120WARRANTY": 7979, "_up": 7980, "ceive": 7981, "\u0120clients": 7982, ".Tr": 7983, "\u0120providing": 7984, "\u0120rout": 7985, "material": 7986, "\u0120Ser": 7987, "\u0120Office": 7988, "FTWARE": 7989, "\u0120'$": 7990, "\u0120foc": 7991, "\u0120excell": 7992, "\u0120cat": 7993, "normal": 7994, "\u0120determine": 7995, "\u0109uint": 7996, "Pane": 7997, "\u0120employees": 7998, "\u0120Texas": 7999, "\u0120traff": 8000, "\u0120Report": 8001, "anta": 8002, "\u0120Box": 8003, "\u0120django": 8004, "\u0120partner": 8005, "EB": 8006, "LINE": 8007, "\u0120feeling": 8008, "\u0120civil": 8009, "(float": 8010, "Sql": 8011, "\u0120wouldn": 8012, ".init": 8013, ".left": 8014, "-v": 8015, "_level": 8016, "'}": 8017, "AF": 8018, "\u0120loading": 8019, "\u0120Only": 8020, "\u0120cookies": 8021, "\u0120Gl": 8022, "CO": 8023, "\u0120strategy": 8024, "('./": 8025, "\u0120ship": 8026, "poses": 8027, "\u0120signal": 8028, "\u0120alpha": 8029, ".pop": 8030, "Radius": 8031, "\u0120replace": 8032, "_DIR": 8033, "counter": 8034, "bservable": 8035, "ela": 8036, "Weight": 8037, "hash": 8038, "bose": 8039, "fx": 8040, "\u0120Email": 8041, "\u0120refer": 8042, "localhost": 8043, "_RO": 8044, "iques": 8045, "Step": 8046, "\u0120ahead": 8047, "(View": 8048, "\u0120Services": 8049, "\u0120Json": 8050, "essor": 8051, "\u0120pun": 8052, "\u0120appropriate": 8053, "akers": 8054, "osen": 8055, "posing": 8056, "\u0120agent": 8057, "fc": 8058, "\u0120transfer": 8059, "\u0120invalid": 8060, "\u0120Research": 8061, "Vertex": 8062, "\u0120gay": 8063, "\u0120journal": 8064, "[x": 8065, "\u0120Well": 8066, ".Tasks": 8067, "Spec": 8068, "\u0120ol": 8069, "\u0120spend": 8070, "\u0120Australia": 8071, "Match": 8072, ".junit": 8073, "\u0120\u0120\u0120\u0120\u0120\u0120\u0120\u0120\u0120\u0120\u0120\u0120\u0120\u0120\u0120\u0120\u0120\u0120\u0120\u0120\u0120\u0120\u0120\u0120\u0120\u0120\u0120\u0120\u0120\u0120\u0120\u0120\u0120\u0120\u0120\u0120\u0120": 8074, "\u0120MAX": 8075, "izable": 8076, "clusive": 8077, "_valid": 8078, "\u0120quarter": 8079, "yan": 8080, "\u0120Edit": 8081, "arden": 8082, "=new": 8083, "\u0120frag": 8084, "Bit": 8085, "zi": 8086, "aine": 8087, "udd": 8088, ".Object": 8089, "debug": 8090, "\u0120cash": 8091, "_IM": 8092, "\u0120een": 8093, "\u0120commercial": 8094, "\u0120Video": 8095, "loader": 8096, "\u0120fixed": 8097, "\u0120applications": 8098, "\u0120_,": 8099, "\u0120Russia": 8100, "itect": 8101, "_(": 8102, "\u0120Block": 8103, "\u0120san": 8104, "\u0120Tom": 8105, "\u0120perhaps": 8106, "\u0120sig": 8107, "levant": 8108, "\u0120corpor": 8109, "ataset": 8110, "ronic": 8111, "xe": 8112, "\u0120eth": 8113, "Some": 8114, "pop": 8115, "_OK": 8116, "\u0120tend": 8117, ".Res": 8118, "_and": 8119, "\u0120reviews": 8120, "\u0120wild": 8121, "\u0120degree": 8122, ".O": 8123, ".objects": 8124, "_args": 8125, "nil": 8126, "\u0120disabled": 8127, "Parent": 8128, "\u0120notes": 8129, "(state": 8130, "istrict": 8131, "\u0120logging": 8132, ".IO": 8133, "\u0120Mal": 8134, "DM": 8135, "\u0120xml": 8136, "\u0120Robert": 8137, "elen": 8138, "layout": 8139, "fol": 8140, "']))": 8141, ",b": 8142, "\u0120Jer": 8143, "filename": 8144, "\u0120fan": 8145, "\u0120Custom": 8146, "=\"\"": 8147, "\u0120Die": 8148, "Bundle": 8149, ".utils": 8150, "\u0120trip": 8151, "MB": 8152, "\u0120soft": 8153, "_MODE": 8154, "\u0120applicable": 8155, "\u0120upper": 8156, "ERVER": 8157, "_al": 8158, "_LOG": 8159, "Here": 8160, "wp": 8161, "\u0120Server": 8162, "\u0120Client": 8163, "\u0120chem": 8164, "Scroll": 8165, "\u0120highest": 8166, "\u0120Select": 8167, "\u0120\"@": 8168, "\u0120Why": 8169, "Sec": 8170, "heel": 8171, "Operation": 8172, "\u0120connected": 8173, "irmed": 8174, "\u0120citiz": 8175, "\u0120Che": 8176, "\u0120forces": 8177, "\u0120www": 8178, "Root": 8179, "ANCE": 8180, "Many": 8181, "icip": 8182, "rgan": 8183, "\u0120Tor": 8184, "\u0120Press": 8185, "\u0120Mor": 8186, "-line": 8187, "uled": 8188, ">\\": 8189, "\u0120thus": 8190, "\u0120Register": 8191, "hol": 8192, "\u0120Chinese": 8193, "\u0120posted": 8194, "\u0120magn": 8195, "abilities": 8196, "\u0120disease": 8197, "\u0120remains": 8198, "\u0120Prof": 8199, "-form": 8200, "\u0120cin": 8201, "organ": 8202, "icate": 8203, "\u0120stress": 8204, "]*": 8205, "\u0120----------------------------------------------------------------": 8206, "_context": 8207, "orry": 8208, "\u0120died": 8209, "mat": 8210, "\u0120starts": 8211, ".Message": 8212, "\u0120runs": 8213, "\u0120guide": 8214, "\u0120warranty": 8215, "entials": 8216, "dict": 8217, "\u0120Size": 8218, "uler": 8219, "\u0120responsible": 8220, "_SET": 8221, "\u0120containing": 8222, "\u0120Price": 8223, "||": 8224, "FS": 8225, "\u0120emp": 8226, "_button": 8227, "(uint": 8228, "\u0120suff": 8229, "pth": 8230, "\u0120definitely": 8231, "pute": 8232, "\u0120marketing": 8233, "\u0120WH": 8234, "\u0120Sie": 8235, "+=": 8236, "OLOR": 8237, "\u0120consult": 8238, "\u0120signed": 8239, "\u0120sequence": 8240, "lee": 8241, "\u0120requirements": 8242, "hy": 8243, "Express": 8244, "MT": 8245, "sey": 8246, "\u0120ult": 8247, "elligence": 8248, "\u0120analy": 8249, "\u0120dress": 8250, "engine": 8251, "\u0120Great": 8252, "\u0120Android": 8253, "\u0120Alex": 8254, "mode": 8255, "Dictionary": 8256, ".Date": 8257, "VICE": 8258, "\u0120families": 8259, "\u0120Russian": 8260, "\u0120Times": 8261, ".call": 8262, "$(": 8263, "Profile": 8264, "\u0120folder": 8265, "ches": 8266, "\u0120legis": 8267, "_row": 8268, "unes": 8269, "\u00d9\u0126": 8270, "\u0120}).": 8271, "Assert": 8272, "agen": 8273, "\u0120Hand": 8274, "Iter": 8275, "\u0120biggest": 8276, "oreach": 8277, "\u0120polic": 8278, "\u0120permissions": 8279, "\u0120showed": 8280, "\u0120Element": 8281, "\u0120topic": 8282, "\u00e2\u0122\u0136\u00e2\u0122\u0136": 8283, "road": 8284, "\u0120Bank": 8285, "record": 8286, "\u0120partners": 8287, "\u0120Ref": 8288, "essions": 8289, "\u0120assess": 8290, "UST": 8291, "\u0120Party": 8292, "produ": 8293, "LC": 8294, "\u0120ul": 8295, ".form": 8296, "hide": 8297, "copy": 8298, "UTF": 8299, "\u0120SOFTWARE": 8300, "\u010d\u010a\u010d\u010a\u010d\u010a": 8301, "\u0120Lin": 8302, "una": 8303, "ugar": 8304, "\u0120administration": 8305, "\u0120opening": 8306, "\u0120scan": 8307, "\u0120continued": 8308, "component": 8309, ".sp": 8310, "\u0120happens": 8311, "ummy": 8312, "\u0120PR": 8313, ".File": 8314, "\u0120Download": 8315, "Loading": 8316, "di": 8317, "\u0120waiting": 8318, "_ADD": 8319, "Tab": 8320, ".querySelector": 8321, "\u0120economy": 8322, "\u0120French": 8323, "txt": 8324, "\u0120fant": 8325, "Holder": 8326, "SH": 8327, "\u0120numpy": 8328, "\u0120street": 8329, "\u0120male": 8330, "\\Model": 8331, "anging": 8332, "\u0120Bill": 8333, "\u0120previously": 8334, "BI": 8335, "\u0120Secret": 8336, "\u0120mist": 8337, "\u0120Field": 8338, "ups": 8339, "\u0120Process": 8340, "\u0120kept": 8341, "\u0120OT": 8342, "\u0120traditional": 8343, ".i": 8344, "amin": 8345, "\u0120helps": 8346, "Any": 8347, "origin": 8348, "ilters": 8349, "ju": 8350, "desc": 8351, "\u0120Account": 8352, "ktop": 8353, "olly": 8354, "\u0120fs": 8355, "\u0120\u00ea": 8356, "\u0120ut": 8357, "\u0120central": 8358, "(test": 8359, ".An": 8360, "\u0120satisf": 8361, "GR": 8362, "\u0120Full": 8363, "\u0120heat": 8364, "iber": 8365, "\u0120onto": 8366, "mos": 8367, "Schema": 8368, "\u0120factory": 8369, "\".$": 8370, "aws": 8371, "Statement": 8372, "(target": 8373, "\u0109new": 8374, ".be": 8375, "\u0120guest": 8376, "\u0120mal": 8377, "ARY": 8378, "\u0120reached": 8379, "\u0120mouse": 8380, "\u0120challenge": 8381, "\u0109double": 8382, "\u0120Tem": 8383, "\u0120terror": 8384, "\u0120extract": 8385, "_TO": 8386, "\u0120separate": 8387, "\u0120mir": 8388, "help": 8389, "\u0120capacity": 8390, "\u0120Property": 8391, "kan": 8392, "_create": 8393, "\u0120Light": 8394, ".parent": 8395, "\u0120understanding": 8396, "\u0120easier": 8397, "\u0120|=": 8398, "\u0120enh": 8399, "\u0120fat": 8400, "\u0120protest": 8401, "amm": 8402, "_AT": 8403, "-of": 8404, "ils": 8405, "\u0120Oh": 8406, "\u0120psych": 8407, "\u0120$.": 8408, "inds": 8409, "\u0120relative": 8410, "shop": 8411, "short": 8412, "\u0120Sand": 8413, "uestion": 8414, "\u0120fear": 8415, ".context": 8416, "\u0120schools": 8417, "\u0120serve": 8418, "zone": 8419, "_db": 8420, "\u0120majority": 8421, "example": 8422, "\u0120lang": 8423, "\u0109\u0120\u0120": 8424, "Register": 8425, "endo": 8426, "\u0120processing": 8427, "_template": 8428, "-user": 8429, "\u0120eg": 8430, "COM": 8431, "\u0120Blue": 8432, "iro": 8433, "\u0120remote": 8434, "\u0120IT": 8435, "#!/": 8436, "\u0120redistrib": 8437, "raz": 8438, "\u0120Since": 8439, "\u0120Tur": 8440, "Background": 8441, "===": 8442, "\u0120reflect": 8443, "\u0120pros": 8444, "cmd": 8445, "\u0120whom": 8446, "Compat": 8447, "\u0120Are": 8448, "Identifier": 8449, "\u0120Thom": 8450, "_port": 8451, "gu": 8452, "\u0120monitor": 8453, "rm": 8454, "\u0120patient": 8455, "verter": 8456, "\u0120gain": 8457, "-ui": 8458, "Inst": 8459, "\u0120dies": 8460, "Area": 8461, "_filter": 8462, "\u0120grat": 8463, "\u0120reality": 8464, "ordinate": 8465, "olved": 8466, "Contact": 8467, "\u0120compliance": 8468, "_or": 8469, "\u0120Var": 8470, "dl": 8471, "\u0120append": 8472, "GER": 8473, "(max": 8474, ".render": 8475, "\u0120dynamic": 8476, "ordinates": 8477, "_options": 8478, "_column": 8479, "\u0120batter": 8480, "space": 8481, "La": 8482, "\u0120Source": 8483, "/bin": 8484, "\u0120dos": 8485, "\u0120Board": 8486, "\u0120Thread": 8487, "\u0120AL": 8488, "(config": 8489, "\u0120Mer": 8490, "\u0120miles": 8491, "_header": 8492, "ETHOD": 8493, "izz": 8494, "\u0120benefit": 8495, "\u0120integr": 8496, "(current": 8497, "ulo": 8498, ".default": 8499, "\u0120Div": 8500, "\u0120ton": 8501, "oth": 8502, "ervation": 8503, "edom": 8504, "\u0120baby": 8505, "ceived": 8506, ".top": 8507, "riority": 8508, "\u0120Local": 8509, "riage": 8510, "\u0120attacks": 8511, "\u0120hospital": 8512, "\u0120female": 8513, "\u0120Login": 8514, "\u0120Flor": 8515, "\u0120chain": 8516, "ashion": 8517, "Texture": 8518, "Save": 8519, "\u0120farm": 8520, ".contains": 8521, ".Test": 8522, "\u0120knows": 8523, "\u0120generally": 8524, "ipeline": 8525, "\u0120meant": 8526, "encia": 8527, "\u0120nicht": 8528, "\u0120contents": 8529, "PM": 8530, "chedule": 8531, "(line": 8532, "CG": 8533, "job": 8534, "\u0120Real": 8535, "uer": 8536, "firm": 8537, "\u0120\u00d8": 8538, "etro": 8539, "\u0120speech": 8540, "\u0120thr": 8541, "foreach": 8542, "\u0120warn": 8543, "\u0109l": 8544, "\u0120heavy": 8545, "<li": 8546, "Ne": 8547, "\u0120investigation": 8548, "Math": 8549, "-title": 8550, "\u0120church": 8551, "\u0120despite": 8552, "chain": 8553, "\u0120whatever": 8554, "arian": 8555, "fn": 8556, "\u0120meta": 8557, "UFF": 8558, "\u0120regarding": 8559, "_SUCCESS": 8560, "mes": 8561, "\u0120Intent": 8562, "\u0120resolve": 8563, "poss": 8564, "ira": 8565, "force": 8566, "oice": 8567, "\u00c3\u00a2": 8568, "\u0120pm": 8569, "\u0120updates": 8570, "Arr": 8571, "\u0120\u00d1": 8572, "testing": 8573, "\u0120toward": 8574, "ntax": 8575, "\u00eb\u012d": 8576, "\u0120listen": 8577, "\u0120goals": 8578, "InstanceState": 8579, "Dr": 8580, "\u0120rare": 8581, "\u0120trail": 8582, "Keys": 8583, "Cal": 8584, "Car": 8585, "\u0120People": 8586, "\u0109local": 8587, "classes": 8588, "Reference": 8589, ".forEach": 8590, "emb": 8591, "activ": 8592, "\u0120prim": 8593, "redict": 8594, "\u0120rad": 8595, ".Back": 8596, "\u0120spread": 8597, "\u0120clock": 8598, "\u0120vir": 8599, "editor": 8600, "\u0120efforts": 8601, "\u0120branch": 8602, "\u0120indust": 8603, "\u0120motor": 8604, "\u0120amb": 8605, "\u0120datetime": 8606, "\u0120rencont": 8607, "\u0120Christian": 8608, "\u0120Americans": 8609, "full": 8610, "\u0120fmt": 8611, ".main": 8612, "\u0120caused": 8613, "_update": 8614, "\u0120Content": 8615, "ATCH": 8616, "\u0120bath": 8617, "\u0120Each": 8618, "\u0120radio": 8619, "achment": 8620, "uzz": 8621, "Submit": 8622, "\u0120restrict": 8623, "abin": 8624, "\u0120Load": 8625, "\u0120extension": 8626, "\u0120essay": 8627, "\u0120hat": 8628, "aviour": 8629, "toBe": 8630, "\":[": 8631, "\u0120offered": 8632, "\u0120vill": 8633, "(double": 8634, "bc": 8635, "_free": 8636, "\u0120Miss": 8637, "\u0120Ber": 8638, "\u0120Like": 8639, "\u0120helped": 8640, ".getName": 8641, "_AL": 8642, "\u0120spirit": 8643, "\u0120Apache": 8644, "ws": 8645, "\u0120therefore": 8646, "(params": 8647, "_img": 8648, "\u0120peace": 8649, "\u0120incor": 8650, "\u0120EXPECT": 8651, "\u0120minor": 8652, "ipes": 8653, "\u0109data": 8654, "selector": 8655, "city": 8656, "trie": 8657, ".base": 8658, "_frame": 8659, "\u0120opened": 8660, "/json": 8661, "LY": 8662, "nu": 8663, ".De": 8664, "tf": 8665, "margin": 8666, ".Parse": 8667, "\u0120pi": 8668, "\u0120eq": 8669, "bd": 8670, "Fields": 8671, "\u0120Tree": 8672, "\u0120ban": 8673, "istan": 8674, "\u010a\u0120\u0120\u0120\u0120\u0120\u0120\u0120\u0120\u010a": 8675, "\u0109gl": 8676, "\u0120produced": 8677, "system": 8678, "Mark": 8679, "_hash": 8680, "\u0120bg": 8681, "\u0120constit": 8682, "\u0120League": 8683, "\u0120mission": 8684, "_format": 8685, "clusion": 8686, "!\"": 8687, "\u00d0\u00b7": 8688, "break": 8689, "\u0109switch": 8690, "\u0120ther": 8691, "Transform": 8692, "\u0120football": 8693, "-link": 8694, "route": 8695, ".auth": 8696, "\u0120bag": 8697, "overs": 8698, "\u0120enabled": 8699, "\u0120rac": 8700, "(I": 8701, "CR": 8702, "ancing": 8703, "\u0120managed": 8704, "_q": 8705, "NGTH": 8706, "\u0120mac": 8707, "\u0120Auto": 8708, "amente": 8709, "\u0120'',": 8710, ".Append": 8711, "\u0120pin": 8712, ".item": 8713, "acking": 8714, "\u0120occas": 8715, "person": 8716, "\u0120ti": 8717, ".Reg": 8718, "\u0120haven": 8719, "\u0120glass": 8720, "\u0120\"</": 8721, "\u0120Simple": 8722, "Print": 8723, "\u0120surround": 8724, "NO": 8725, "\u0120\u0120\u0120\u0120\u0120\u0120\u0120\u0120\u010d\u010a": 8726, "\u0120Many": 8727, "\u0120\"_": 8728, "\u0120weekend": 8729, "\u0120somew": 8730, ".params": 8731, "small": 8732, "ATED": 8733, "\u0120plugin": 8734, "fields": 8735, "\u0120Initialize": 8736, "oon": 8737, "atile": 8738, "ye": 8739, "\u0120vous": 8740, "LAG": 8741, "\u0120older": 8742, "\u0120gam": 8743, "\u0120extremely": 8744, "\u0120het": 8745, "enum": 8746, "\u0120SET": 8747, "xff": 8748, "\u0120timer": 8749, "/index": 8750, "\u0120critical": 8751, "Rows": 8752, "_argument": 8753, "\u0120execute": 8754, "\u0120showing": 8755, ".xml": 8756, "-list": 8757, "Role": 8758, "typename": 8759, "_method": 8760, "that": 8761, "cher": 8762, "\u0120\u00e2\u0128": 8763, "XT": 8764, "\u0120thousands": 8765, "\u0109n": 8766, "\u0120resp": 8767, "_price": 8768, "olut": 8769, "Ag": 8770, "\u0120Two": 8771, "\u0120becomes": 8772, "\u0120hus": 8773, ".Use": 8774, "theme": 8775, "urb": 8776, "erialize": 8777, "ARN": 8778, "\u0120lose": 8779, "Lower": 8780, "\u0120vel": 8781, "\u0120defense": 8782, "condition": 8783, "\u0120bes": 8784, "\u0120dry": 8785, "\u0120scroll": 8786, ".Show": 8787, "IEL": 8788, "\u00d0\u00be\u00d1\u0122": 8789, "\u0120Rest": 8790, "Where": 8791, "oods": 8792, "\u0120Jes": 8793, "\u0120wire": 8794, "_INFO": 8795, "\u0120strings": 8796, "gment": 8797, "\u0120matches": 8798, "\u0120electric": 8799, "\u0120excellent": 8800, "\u0120Council": 8801, "idade": 8802, "\u0120wx": 8803, "push": 8804, "_entry": 8805, "\u0120tasks": 8806, "\u0120rich": 8807, "sa": 8808, "\u0120Smith": 8809, "UNCTION": 8810, "Pointer": 8811, "pective": 8812, "\u0120widget": 8813, "ista": 8814, "\u0120agency": 8815, "\u0120sich": 8816, "ologies": 8817, "\u0120trial": 8818, "alysis": 8819, ".check": 8820, "ARK": 8821, "\u0120onChange": 8822, "about": 8823, "',$": 8824, "(val": 8825, "\u0120placed": 8826, "_NO": 8827, "\u0120dan": 8828, ".equal": 8829, "\u0109\u0120\u0120\u0120\u0120\u0120": 8830, "\u0120weather": 8831, ".game": 8832, "\u0120destination": 8833, "_USER": 8834, "iece": 8835, "\u0120provider": 8836, ".last": 8837, "plex": 8838, "Note": 8839, "/js": 8840, "\u0120p\u00c3\u00a5": 8841, "\u0120planning": 8842, "attribute": 8843, "PRO": 8844, "atches": 8845, "\u0120<-": 8846, "\u0120seeing": 8847, "\u0120cancel": 8848, "_ind": 8849, ".keys": 8850, "\u0120visual": 8851, "\u0120Current": 8852, "\u0120College": 8853, "\u0120Rock": 8854, "\u0120agreement": 8855, "\u0120Store": 8856, "oving": 8857, "\u0120corner": 8858, "ampions": 8859, "ISE": 8860, "Fin": 8861, "\u0120protection": 8862, "\u0120fi": 8863, "Play": 8864, "plugin": 8865, ")}": 8866, ".frame": 8867, "-z": 8868, "\u0120transition": 8869, "igin": 8870, "\u0120candidate": 8871, "\u0120Union": 8872, "_values": 8873, "(map": 8874, "cle": 8875, "\u0120trend": 8876, "wide": 8877, "aren": 8878, "Loc": 8879, "UTH": 8880, "\u0120Bay": 8881, "\u0120smaller": 8882, "ius": 8883, "well": 8884, "\u0120criminal": 8885, "\u0120conflic": 8886, "bert": 8887, "_INT": 8888, "\u0120investment": 8889, "custom": 8890, "\u0120Session": 8891, "_write": 8892, "ania": 8893, "\u0120Mass": 8894, "_EQ": 8895, "_NOT": 8896, "\u0120violence": 8897, "Argument": 8898, "_email": 8899, "\u0120belong": 8900, "_function": 8901, "\u0120enemy": 8902, "ema": 8903, "\u0120Address": 8904, ".empty": 8905, "\u0120inner": 8906, "\u0120Contact": 8907, "Loader": 8908, "<input": 8909, "\u0120CA": 8910, "lot": 8911, "\u0120pictures": 8912, "\u0120Support": 8913, "_names": 8914, "Layer": 8915, "\u0120Click": 8916, "Sum": 8917, "\u00c3\u00a6": 8918, "\u0120Look": 8919, "uous": 8920, "Lib": 8921, "Flags": 8922, "team": 8923, "EP": 8924, "hat": 8925, "override": 8926, "apsed": 8927, "\u0120labels": 8928, "quis": 8929, "\u0120Stream": 8930, "_device": 8931, "\u0120Commit": 8932, "(root": 8933, "\"}": 8934, ".isEmpty": 8935, "\u0109M": 8936, "\u0120angle": 8937, "\u0120Because": 8938, "%%%%%%%%": 8939, "\u0120aim": 8940, "\u0120stick": 8941, "stmt": 8942, "agraph": 8943, "answer": 8944, "\u0120clin": 8945, "\u0120Isl": 8946, ".ext": 8947, "\u0120INT": 8948, "\u0120styles": 8949, "\u0120born": 8950, "\u0120scr": 8951, "\u0120expand": 8952, "\u0120raised": 8953, "TextBox": 8954, "ILL": 8955, "------------------------------------------------": 8956, "HTTP": 8957, ">)": 8958, "_char": 8959, "resource": 8960, "\u0120episode": 8961, "\u0120'_": 8962, "\u0120Es": 8963, "\u0120Earth": 8964, "\u00c2\u0142\u00c2\u0142": 8965, "UPDATE": 8966, "\u0120Sou": 8967, "uis": 8968, "types": 8969, "\u0120mas": 8970, "\u0120fav": 8971, "\u0120construct": 8972, "_rate": 8973, "eras": 8974, "roperties": 8975, "\u0120external": 8976, "\u0120applied": 8977, "\u0120prefix": 8978, "oted": 8979, "lers": 8980, "\u0120cold": 8981, "\u0120SP": 8982, "\u0120Church": 8983, "\u0120Output": 8984, "losed": 8985, "ificate": 8986, "operation": 8987, "herit": 8988, "xFF": 8989, ".env": 8990, "_err": 8991, "osh": 8992, "Direction": 8993, "Cancel": 8994, "\u0120Frank": 8995, "\u0120finding": 8996, "\u0120router": 8997, "\u00e3\u0125\u00bb": 8998, "ses": 8999, "\u0120crow": 9000, "=='": 9001, "\u0120sand": 9002, "\u0120rid": 9003, "iture": 9004, "\u0120entre": 9005, "\u0120observ": 9006, "\u0120vac": 9007, "\u00f0\u0141": 9008, "-T": 9009, "Art": 9010, "night": 9011, ".search": 9012, "\u0120exchange": 9013, "\u0120district": 9014, ".os": 9015, "\u0120department": 9016, "\u0120documents": 9017, "\u0120century": 9018, "\u0120Next": 9019, "Host": 9020, "\u0120KIND": 9021, "\u0120susp": 9022, "-P": 9023, "rend": 9024, ".em": 9025, "uite": 9026, "isters": 9027, "(json": 9028, "\u0120Ann": 9029, "wt": 9030, "ati": 9031, "\u0120HTML": 9032, "when": 9033, "Directory": 9034, "\u0120shut": 9035, "<a": 9036, "edy": 9037, "\u0120healthy": 9038, "\u0120temperature": 9039, "\u0120Gen": 9040, "\u0120metal": 9041, "\u0120submit": 9042, "\u0120DO": 9043, "\u0120attract": 9044, "\u0120Word": 9045, "\u0120ll": 9046, "\u0120seemed": 9047, "ko": 9048, "IED": 9049, "\u0120labor": 9050, ".Context": 9051, "\u0120asset": 9052, "you": 9053, "\u0120cars": 9054, "\u0120Column": 9055, "\u0120r\u00c3\u00a9": 9056, "\u0120square": 9057, "\u0120NSString": 9058, "\u00e2\u0122\u013f,": 9059, "apes": 9060, "\u0120thanks": 9061, "(props": 9062, "\u0120tick": 9063, "\u0120experiment": 9064, "\u0120prison": 9065, "tree": 9066, "-text": 9067, "\u0120IOException": 9068, "-width": 9069, "_STATUS": 9070, "fast": 9071, "-body": 9072, "-header": 9073, "\u0120guar": 9074, "crete": 9075, "\u0120Tim": 9076, "\u0120clearly": 9077, "\u0120Republican": 9078, "\u0120justify": 9079, "\u00d0\u00b8\u00d1\u0124": 9080, "\u0109\u0120\u0120\u0120\u0120": 9081, "cache": 9082, ";//": 9083, "\u0120presence": 9084, "\u0120factors": 9085, "\u0120employee": 9086, "]))": 9087, "Member": 9088, "\u0120selector": 9089, "bor": 9090, "\u0120Mex": 9091, "utex": 9092, "_tag": 9093, "ailure": 9094, "\u0120Net": 9095, "\u0120reli": 9096, "EG": 9097, "\u0120fprintf": 9098, "\u0120teen": 9099, "loss": 9100, "\u0120leaving": 9101, "Delegate": 9102, "\u0120beat": 9103, "\u0120minute": 9104, "subscribe": 9105, "\u0120redistribute": 9106, "Constants": 9107, "\u0120cancer": 9108, "/{": 9109, "BL": 9110, "\u0120span": 9111, "\u0120Child": 9112, "Center": 9113, "\u0120earth": 9114, "YS": 9115, "\u0120Level": 9116, "\u0120sea": 9117, ".support": 9118, ".inner": 9119, ".Item": 9120, "illing": 9121, "\u0120\u0120\u0120\u0120\u010a\u0120\u0120\u0120\u0120\u010a": 9122, "\u0120Label": 9123, "\u0120Est": 9124, "(arg": 9125, "boBox": 9126, "\u0109foreach": 9127, "cos": 9128, "Failed": 9129, "swers": 9130, "Editor": 9131, "ront": 9132, "\u0120MP": 9133, "expr": 9134, "\u0120Life": 9135, "\u0120??": 9136, "\u00c3\u00b6r": 9137, "\u0120attend": 9138, "\u0120Que": 9139, "\u0120species": 9140, "-D": 9141, "\u0120aus": 9142, "Struct": 9143, "\u0120advantage": 9144, "oston": 9145, "-block": 9146, "initial": 9147, "CRE": 9148, "\u0120truly": 9149, "\u0120compare": 9150, "orney": 9151, "\u0120spect": 9152, "Full": 9153, "bes": 9154, "\u0120visible": 9155, "\u0120mess": 9156, "stances": 9157, "\u0120cloud": 9158, "_version": 9159, "\u0120furn": 9160, "icago": 9161, "LOW": 9162, "\u0120traffic": 9163, "\u0120fol": 9164, "rypto": 9165, "\u0120declar": 9166, "\u0120slot": 9167, "\u0120Ext": 9168, "\u0120England": 9169, "\u0120Under": 9170, "\u0120ta": 9171, "letter": 9172, "\u0120officer": 9173, "\u0120Donald": 9174, "Yes": 9175, "_json": 9176, "ITableView": 9177, "\u0120USE": 9178, "mployee": 9179, "\u0120opinion": 9180, "\u0120Aut": 9181, "border": 9182, "\u0120advice": 9183, "\u0120automatically": 9184, "isco": 9185, "\u0120mm": 9186, ".vis": 9187, "aml": 9188, "\u0120initialize": 9189, "\u0120({": 9190, "\u0120generation": 9191, "\u0120bits": 9192, "clipse": 9193, "\u0120unf": 9194, "utors": 9195, "plt": 9196, "\u0120delta": 9197, "estroy": 9198, "isis": 9199, "<br": 9200, "\u0120limitations": 9201, "\u0120ended": 9202, "\u0120Mad": 9203, "ilm": 9204, "These": 9205, "\u0120Minister": 9206, "\u0120chart": 9207, "Fragment": 9208, "\u0120independent": 9209, "Year": 9210, "\u0120instr": 9211, "\u0120tags": 9212, "AVE": 9213, "\u0120Arch": 9214, "stop": 9215, "Progress": 9216, "\u0120mi": 9217, "\u0120learned": 9218, "Ge": 9219, "\u0120hotel": 9220, "SM": 9221, "TYPE": 9222, "\u0120cy": 9223, "ERSION": 9224, "unately": 9225, "limit": 9226, "sel": 9227, "\u0120movies": 9228, "\u0120steel": 9229, "oz": 9230, "gb": 9231, "\u0120Camp": 9232, "site": 9233, "\u0120Logger": 9234, "PLE": 9235, ".right": 9236, "\u0120Core": 9237, "\u0120mixed": 9238, "step": 9239, "\u0120puts": 9240, "super": 9241, "Router": 9242, ".Http": 9243, "lyph": 9244, "\u0120Colors": 9245, "\u0120androidx": 9246, ".str": 9247, "\u0120innov": 9248, "\u0120deck": 9249, "apers": 9250, "](": 9251, "continue": 9252, "spec": 9253, "\u0120Road": 9254, "ASH": 9255, "iliar": 9256, "\u0120continues": 9257, "\u0120appoint": 9258, "\u0120Vir": 9259, "\u0120?>\"": 9260, "\u0120bin": 9261, "}\",": 9262, "going": 9263, "each": 9264, "BD": 9265, "\u0120Access": 9266, "Doc": 9267, "\u0120Management": 9268, "BER": 9269, "asket": 9270, ".getInstance": 9271, "\u0120established": 9272, "socket": 9273, "INS": 9274, "\u0109virtual": 9275, "\u0109result": 9276, "READ": 9277, "_height": 9278, "\u0120Font": 9279, "_html": 9280, "\u0120neighbor": 9281, "lor": 9282, "\u0120gather": 9283, "\u0120identity": 9284, "\u0120fab": 9285, "padding": 9286, "\u0120Route": 9287, "Enumerable": 9288, "\u00c3\u00b4": 9289, "\u0120forced": 9290, "/jquery": 9291, "resents": 9292, "_left": 9293, ".Param": 9294, "\u0109throw": 9295, "\u0120Ham": 9296, "\u0120eventually": 9297, "acer": 9298, "pub": 9299, "\u0120tra": 9300, "unique": 9301, "del": 9302, "\u0120Florida": 9303, "\u0120Clean": 9304, "xa": 9305, "\u0120\u00c2\u00b7": 9306, "\u0120validate": 9307, "Visual": 9308, "Expression": 9309, "_func": 9310, "member": 9311, "\u0109h": 9312, "trl": 9313, "\u0109G": 9314, "napshot": 9315, "\u0120PropTypes": 9316, "vin": 9317, "owl": 9318, "ifies": 9319, "\u0120$('.": 9320, "\u0120Context": 9321, "\u0120Toast": 9322, ".Key": 9323, "\u0120officers": 9324, "/n": 9325, "sn": 9326, "undefined": 9327, ".items": 9328, "utow": 9329, "amage": 9330, "\u0120accounts": 9331, "ookie": 9332, "Section": 9333, "icians": 9334, "\u0120advis": 9335, "(is": 9336, "[:,": 9337, "\u0120France": 9338, "Func": 9339, "icious": 9340, "\u0120tok": 9341, "Channel": 9342, "\u0120AD": 9343, "_NUM": 9344, "\u0120timeout": 9345, "lemma": 9346, "reme": 9347, "uj": 9348, ".Al": 9349, "uclear": 9350, "(os": 9351, "(\"<": 9352, "fetch": 9353, "\u0120bal": 9354, "\u0120guid": 9355, "-align": 9356, "\u0120Write": 9357, "\u0120Once": 9358, "utowired": 9359, "ODULE": 9360, "\u0120pitch": 9361, "CF": 9362, "bytes": 9363, "\u0120Commission": 9364, "\u0120incred": 9365, "PER": 9366, "_response": 9367, "\u0120Los": 9368, "parser": 9369, "\u0120assume": 9370, ".Request": 9371, "\u0120Token": 9372, "_position": 9373, "\u0120nom": 9374, "-term": 9375, "\u0120remaining": 9376, "iostream": 9377, "\u0120pieces": 9378, "apy": 9379, "\u0120Less": 9380, "range": 9381, "umbn": 9382, "prise": 9383, "_option": 9384, "Impl": 9385, "kwargs": 9386, "\u0120businesses": 9387, "Alert": 9388, "\u0120parties": 9389, "\u0120Container": 9390, "\u0120Private": 9391, "\u0120Plan": 9392, "\u0120registered": 9393, "\u0120jour": 9394, "acker": 9395, "\u00d0\u00b5\u00d0\u00bd\u00d0\u00b8": 9396, "/>": 9397, "chat": 9398, "sect": 9399, "\u0120creation": 9400, "olutely": 9401, "\u0120instant": 9402, "\u0120delivery": 9403, "icken": 9404, "yes": 9405, "\u0120Franc": 9406, "bling": 9407, "enda": 9408, "[(": 9409, "_range": 9410, "\u0120\u0120\u0120\u0120\u0120\u0120\u0120\u0120\u0120\u0120\u0120\u0120\u0120\u0120\u0120\u0120\u0120\u0120\u0120\u0120\u0120\u0120\u0120\u0120\u0120\u0120\u0120\u0120\u0120\u0120\u0120\u0120\u0120\u0120": 9411, "\u0120schedule": 9412, "Conn": 9413, "\u0120thank": 9414, "xd": 9415, "\u0120hook": 9416, "\u0120documentation": 9417, "Parameters": 9418, "Hello": 9419, "vt": 9420, "\u0120articles": 9421, "\u0120west": 9422, "defined": 9423, ".select": 9424, "okens": 9425, "\u0120VAL": 9426, ".file": 9427, "reset": 9428, "\u0120mys": 9429, "\u0120MA": 9430, "]),": 9431, "\u0120cities": 9432, "related": 9433, "\u0120appeared": 9434, "\u0120wid": 9435, ".panel": 9436, "\u0120Ins": 9437, ".entity": 9438, "\u0120decre": 9439, "\u0120Lou": 9440, "(time": 9441, "\u0120Thank": 9442, ".createElement": 9443, "\u0120mentioned": 9444, "ounce": 9445, "\u0120Try": 9446, "\u0120Wall": 9447, "/images": 9448, "\u0120Menu": 9449, "\u0120Er": 9450, "\u0120critic": 9451, "\u0120Year": 9452, "(param": 9453, "\u0120flo": 9454, "NN": 9455, "ooter": 9456, "\u0120Aff": 9457, "\"github": 9458, "rooms": 9459, "\u0120hyp": 9460, "global": 9461, "\u0120avec": 9462, "\u0120completion": 9463, "\u0120cond": 9464, "onymous": 9465, "(temp": 9466, "\u0120stars": 9467, "\u0120relevant": 9468, "\u0120covered": 9469, "\u0120elim": 9470, "_types": 9471, "(bool": 9472, "\u0120tu": 9473, "_exists": 9474, "\u0120secure": 9475, "\u0120stored": 9476, "]/": 9477, "xF": 9478, "\u0120Controller": 9479, "\u0120migr": 9480, "MI": 9481, "\u0120Den": 9482, "\u0120annual": 9483, "UIL": 9484, "-and": 9485, "\u0120crime": 9486, "bel": 9487, "\u0120kitchen": 9488, "@g": 9489, "_ph": 9490, "ournament": 9491, "\u0120Social": 9492, "\u0120Special": 9493, "logger": 9494, "\u0120tail": 9495, "\u0120unknown": 9496, "ded": 9497, "\u0120apprec": 9498, "(db": 9499, "cf": 9500, "\u0120assign": 9501, "-out": 9502, "\u0120Mont": 9503, "dp": 9504, "widget": 9505, "\u0120stone": 9506, "-primary": 9507, ".grid": 9508, "Results": 9509, "azz": 9510, "\u0120daughter": 9511, "\u0120curr": 9512, "\u0120lin": 9513, "\u0120south": 9514, "forms": 9515, "\u0120OUT": 9516, "lette": 9517, "aks": 9518, "igure": 9519, "\u0120EU": 9520, "variable": 9521, "\u0120brief": 9522, "\u0120Scott": 9523, "\u0120conference": 9524, "anda": 9525, "_lock": 9526, "oral": 9527, "\u0120eine": 9528, "ORS": 9529, "////////////////////////////////////////////////////////////////": 9530, "esso": 9531, "\u0120ris": 9532, "\u0120gender": 9533, "estic": 9534, "License": 9535, "(out": 9536, "\u0120ms": 9537, "See": 9538, "\u0120willing": 9539, "aze": 9540, "\u0120sports": 9541, "\u0120yes": 9542, "lu": 9543, "\u0120purs": 9544, "/javascript": 9545, "-pro": 9546, "navbar": 9547, "_product": 9548, "/bootstrap": 9549, "\u0120driving": 9550, "\u0120\u00c4": 9551, "\u0120propos": 9552, "ultip": 9553, "uplic": 9554, ".email": 9555, "\u0120approx": 9556, "(cl": 9557, "\u0120wear": 9558, "\u0120reply": 9559, "asset": 9560, "\u0120ice": 9561, "\u0120tx": 9562, "kr": 9563, "\u0120Germany": 9564, "\u0120George": 9565, "\u0120cb": 9566, "\u0109err": 9567, "Move": 9568, "\u0120poly": 9569, "voice": 9570, "}\"": 9571, "\u0120animal": 9572, "Av": 9573, "\u0120Location": 9574, "\u0120native": 9575, "][\"": 9576, "<double": 9577, "\u0120mais": 9578, ",int": 9579, "\u0120prepar": 9580, "\u0120interval": 9581, "plementation": 9582, "_ERR": 9583, "\u0120bug": 9584, ">\"": 9585, "stat": 9586, "<span": 9587, "\u0120faith": 9588, "\u0120rom": 9589, "prev": 9590, "\u0120Elect": 9591, "Find": 9592, "\u0120god": 9593, "otor": 9594, "//----------------------------------------------------------------": 9595, "original": 9596, "Cpp": 9597, "\u0120Senate": 9598, "\u0120positions": 9599, "\u0120weapons": 9600, "\u0120coff": 9601, "\u0120purposes": 9602, "pol": 9603, "\u0120impress": 9604, "\u0120animals": 9605, ".Entity": 9606, "(np": 9607, "\u0120murder": 9608, "\u0120``": 9609, "flag": 9610, "\u0120solutions": 9611, "\u0120Active": 9612, "\u0120bright": 9613, ".date": 9614, "\u0120situ": 9615, "\u00ef\u00bc\u012a": 9616, ".ID": 9617, "\u0120sie": 9618, "akt": 9619, "Space": 9620, ".dat": 9621, ".indexOf": 9622, "han": 9623, "azine": 9624, "\u0120Ze": 9625, "\u0120crash": 9626, "(/": 9627, ">=": 9628, "\u00d0\u00b1": 9629, "iva": 9630, ".AutoSize": 9631, "\u0120Lat": 9632, "_ext": 9633, "Initialize": 9634, ".register": 9635, "OPY": 9636, "\u0120reverse": 9637, "_dis": 9638, "'][": 9639, "\u0120prompt": 9640, "onto": 9641, "\u0120Journal": 9642, "router": 9643, "\u0120mysqli": 9644, "#else": 9645, ")\"": 9646, "-xs": 9647, "lets": 9648, "phan": 9649, ".LE": 9650, "Will": 9651, "\u0120afford": 9652, "\u0120skill": 9653, "-toggle": 9654, "NC": 9655, "Bind": 9656, "TS": 9657, "Just": 9658, "iteral": 9659, "YP": 9660, "\u0109unsigned": 9661, "\u0120wind": 9662, "\u0120warning": 9663, "\u0120Water": 9664, "\u0120draft": 9665, "\u0120cm": 9666, "\u0120sam": 9667, "\u0120holding": 9668, "zip": 9669, "\u0120Science": 9670, "\u0120supposed": 9671, "Gen": 9672, "\u0120diet": 9673, "<h": 9674, "\u0120Pass": 9675, "vi": 9676, "\u0120husband": 9677, "\u00ef\u00bf\u00bd\u00ef\u00bf\u00bd": 9678, "note": 9679, "\u0120About": 9680, "\u0120Institute": 9681, "\u0120climate": 9682, ".Format": 9683, "\u0120nut": 9684, "ested": 9685, "\u0120apparent": 9686, "\u0120holds": 9687, "fi": 9688, "news": 9689, "CM": 9690, "video": 9691, "':'": 9692, "DITION": 9693, "ping": 9694, "\u0120senior": 9695, "wa": 9696, "_default": 9697, "\u0120Database": 9698, "rep": 9699, "ESS": 9700, "nergy": 9701, ".Find": 9702, "_mask": 9703, "\u0120rise": 9704, "\u0120kernel": 9705, "::$": 9706, ".Q": 9707, "\u0120offering": 9708, "decl": 9709, "\u0120CS": 9710, "\u0120listed": 9711, "\u0120mostly": 9712, "enger": 9713, "\u0120blocks": 9714, "olo": 9715, "\u0120governing": 9716, "\\F": 9717, "\u0120concent": 9718, ".getText": 9719, "\u0120mb": 9720, "\u0120occurred": 9721, "\u0120changing": 9722, "Scene": 9723, "_CODE": 9724, "Beh": 9725, "\"The": 9726, "\u0120tile": 9727, "\u0120Association": 9728, "\u0109P": 9729, "alty": 9730, "_ad": 9731, "odies": 9732, "iated": 9733, "\u0120prepared": 9734, "possible": 9735, "\u0120mort": 9736, "TEST": 9737, "\u0120ignore": 9738, "\u0120calc": 9739, "\u0120rs": 9740, "\u0120assertEquals": 9741, "\u0120sz": 9742, "\u0120THIS": 9743, "\u0120canvas": 9744, "java": 9745, "\u0120dut": 9746, "VALID": 9747, ".sql": 9748, ".input": 9749, "\u0120aux": 9750, "Sup": 9751, "\u0120artist": 9752, "Vec": 9753, "_TIME": 9754, ".stringify": 9755, "etween": 9756, "\u0120Category": 9757, "\u0120[-": 9758, "\u0120DevExpress": 9759, "\u0120Jul": 9760, "\u0120ring": 9761, ".ed": 9762, "YY": 9763, "Let": 9764, "TextField": 9765, "\u0120flat": 9766, "_print": 9767, "\u0120OTHER": 9768, "adian": 9769, "\u0120checked": 9770, "ele": 9771, "Align": 9772, "standing": 9773, "\u0120[],": 9774, "\u0120lab": 9775, "ucky": 9776, "\u0120Christmas": 9777, "(image": 9778, ".module": 9779, "\u0120lots": 9780, "\u0120slightly": 9781, "(final": 9782, "erge": 9783, "\u0120Police": 9784, "\u0120Right": 9785, "\u0120award": 9786, "\u0120OS": 9787, "\u0120ptr": 9788, "oves": 9789, "icated": 9790, "\u0120manage": 9791, "oliday": 9792, "Amount": 9793, "oolStrip": 9794, "tbody": 9795, "Nav": 9796, "wrap": 9797, "BB": 9798, "\u0120watching": 9799, "arios": 9800, "\u0120optional": 9801, "_K": 9802, "\u0120Licensed": 9803, ".Map": 9804, "Timer": 9805, "\u0120AP": 9806, "\u0120Rev": 9807, "(o": 9808, ",c": 9809, "umin": 9810, "etailed": 9811, "\u0120Hy": 9812, "\u0120blank": 9813, "agger": 9814, "\u0120Self": 9815, "()[": 9816, ".make": 9817, "earn": 9818, "channel": 9819, "<pre": 9820, "blem": 9821, "_password": 9822, "_sp": 9823, "icing": 9824, "ez": 9825, "\u0120theory": 9826, "\u0120Ter": 9827, ",n": 9828, "logo": 9829, "\u0120HTTP": 9830, "()))": 9831, ".handle": 9832, "World": 9833, "\u0120python": 9834, "\u0120lif": 9835, "\u0120trav": 9836, "\u0120conven": 9837, "company": 9838, "\u0120Club": 9839, "Ver": 9840, "Btn": 9841, "\u0120zone": 9842, "products": 9843, "\u0120Educ": 9844, "\u0120verify": 9845, "\u0120Mil": 9846, "ono": 9847, "ENCE": 9848, "\u0120packet": 9849, "\u0120cer": 9850, "\u0120enumer": 9851, "\u0120pars": 9852, "formed": 9853, "\u0120occup": 9854, "tre": 9855, "\u0120exercise": 9856, "Day": 9857, "_sum": 9858, "\u0120asking": 9859, "aption": 9860, "\u0120orders": 9861, "\u0120spending": 9862, "\u0120ERR": 9863, ".Dis": 9864, "\u0120Util": 9865, "\u00e2\u0122\u013eI": 9866, "\\'": 9867, "?)": 9868, "\u0120emot": 9869, "\u0120influence": 9870, "\u0120Africa": 9871, "atters": 9872, "\u00d9\u0127": 9873, ".session": 9874, "\u0120chief": 9875, "\u0109\u0109\u0109\u0109\u0109\u0109\u0109\u0109\u0109\u0109\u0109": 9876, "\u0120tom": 9877, "cluded": 9878, "serial": 9879, "_handler": 9880, ".Type": 9881, "aped": 9882, "\u0120policies": 9883, "-ex": 9884, "-tr": 9885, "blank": 9886, "merce": 9887, "\u0120coverage": 9888, "\u0120rc": 9889, "_matrix": 9890, "_box": 9891, "\u0120charges": 9892, "\u0120Boston": 9893, "Pe": 9894, "\u0120circum": 9895, "\u0120filled": 9896, "\u0120north": 9897, "ictureBox": 9898, "\u0109res": 9899, "\u0120termin": 9900, "\u0120[\u00e2\u0122\u00a6": 9901, "IRECT": 9902, "\u0120ber": 9903, "\u0120\"../../": 9904, "retch": 9905, ".code": 9906, "_col": 9907, "\u0120Government": 9908, "\u0120argv": 9909, "\u0120Lord": 9910, "asi": 9911, "Exec": 9912, "\u0109let": 9913, "vertis": 9914, "\u0120discussion": 9915, "enance": 9916, "outube": 9917, "typeof": 9918, "\u0120served": 9919, "\u0120Put": 9920, "\u0109x": 9921, "\u0120sweet": 9922, "Before": 9923, "ategy": 9924, ".of": 9925, "\u0120Material": 9926, "Sort": 9927, "ONT": 9928, "igital": 9929, "Why": 9930, "\u0120sust": 9931, "abet": 9932, "\u0120segment": 9933, "\u0120Muslim": 9934, "\u0120findViewById": 9935, "cut": 9936, "_TEXT": 9937, "\u0120Mary": 9938, "\u0120loved": 9939, "\u0120lie": 9940, "\u0120JO": 9941, "\u0120isset": 9942, "month": 9943, "\u0120prime": 9944, "ti": 9945, "\u0120Carol": 9946, "Use": 9947, "\u0120Pop": 9948, "\u0120Save": 9949, "Interval": 9950, "execute": 9951, "dy": 9952, "\u0120Iran": 9953, "_cont": 9954, "\u0109T": 9955, "\u0120phase": 9956, "checkbox": 9957, "week": 9958, "\u0120hide": 9959, "\u0120til": 9960, "\u0120ju": 9961, "Custom": 9962, "burg": 9963, "/M": 9964, "TON": 9965, "\u0120quant": 9966, "\u0120rub": 9967, "ixels": 9968, "\u0120installed": 9969, "\u0120dump": 9970, "\u0120properly": 9971, "(List": 9972, "\u0120decide": 9973, "apply": 9974, "Has": 9975, "\u0120keeping": 9976, "\u0120citizens": 9977, "\u0120joint": 9978, "pool": 9979, "Socket": 9980, "_op": 9981, "\u0120weapon": 9982, "gnore": 9983, "\u0120Exec": 9984, "otten": 9985, "\u0120MS": 9986, "\u0120(-": 9987, "\u0120Review": 9988, "\u0120examples": 9989, "\u0120tight": 9990, "!(": 9991, "DP": 9992, "\u0120MessageBox": 9993, "\u0120photograph": 9994, "URI": 9995, "\u00c3\u00a9t": 9996, "low": 9997, "\u0120Grand": 9998, ".persistence": 9999, "\u0120maintain": 10000, "\u0120nums": 10001, "\u0120zip": 10002, "ials": 10003, "\u0120Gets": 10004, "peg": 10005, "\u0120Buffer": 10006, "~~~~": 10007, "rastructure": 10008, "\u0120PL": 10009, "uen": 10010, "obby": 10011, "sizeof": 10012, "\u0120pic": 10013, "\u0120seed": 10014, "\u0120experienced": 10015, "\u0120odd": 10016, "\u0120kick": 10017, "\u0120procedure": 10018, "avigator": 10019, "-on": 10020, ",j": 10021, "\u0120Although": 10022, "\u0120userId": 10023, "accept": 10024, "Blue": 10025, "IColor": 10026, "layer": 10027, "available": 10028, "\u0120ends": 10029, ".table": 10030, "\u0120dataset": 10031, "bus": 10032, "\u0120explain": 10033, "(pro": 10034, "\u0120Committee": 10035, "\u0120noted": 10036, "Dim": 10037, "stdio": 10038, "_source": 10039, "\u0120Week": 10040, "\u0120Edge": 10041, "\u0120operating": 10042, "\u0120este": 10043, "ipl": 10044, "agination": 10045, "\u0120proceed": 10046, "\u0120animation": 10047, ".Models": 10048, "\u0120Watch": 10049, "iat": 10050, "\u0120oppon": 10051, "/A": 10052, "Report": 10053, "\u0120sounds": 10054, "_buf": 10055, "IELD": 10056, "\u0120bund": 10057, "\u0109get": 10058, ".pr": 10059, "(tmp": 10060, "\u0120kid": 10061, "\u0120yang": 10062, "NotFound": 10063, "\u00d1\u0128": 10064, "math": 10065, "@gmail": 10066, "\u0120LIMIT": 10067, "redients": 10068, "\u0120vent": 10069, "avigate": 10070, "Look": 10071, "\u0120religious": 10072, "\u0120rand": 10073, "rio": 10074, "(GL": 10075, "_ip": 10076, "uan": 10077, "iciency": 10078, "\u0120Change": 10079, "\u0120Entity": 10080, "\u0120rencontre": 10081, "\u0120Ret": 10082, "plan": 10083, "\u00c3\u00a9n": 10084, "BOOL": 10085, "uries": 10086, "train": 10087, "Definition": 10088, "============": 10089, "zz": 10090, "Animation": 10091, "\u0120OK": 10092, "_menu": 10093, ".bl": 10094, "_score": 10095, "\u0120acad": 10096, "(System": 10097, "\u0120refresh": 10098, "'=>$": 10099, ".Graphics": 10100, "amento": 10101, "pid": 10102, "tc": 10103, "\u0120tips": 10104, "\u0120homes": 10105, "\u0120fuel": 10106, "\u00e2\u0138": 10107, "_helper": 10108, "\u0120\u0120\u010d\u010a": 10109, "\u0120Room": 10110, ".Close": 10111, "_attr": 10112, "\u0120Mount": 10113, "\u0120Ev": 10114, "arser": 10115, "_top": 10116, "eah": 10117, "\u0120Delete": 10118, "\u00e3\u0122\u012f": 10119, "uke": 10120, "\u0120usage": 10121, "aria": 10122, "_dev": 10123, "\u0120texture": 10124, "\u0120conversation": 10125, "eper": 10126, "Bean": 10127, "done": 10128, "nonatomic": 10129, "\u0120Second": 10130, "\u0120shooting": 10131, "_pre": 10132, "Components": 10133, "__,": 10134, "stitution": 10135, ".Char": 10136, "\u0120presented": 10137, "\u0120wa": 10138, "oker": 10139, "iner": 10140, "\u0120becoming": 10141, "\u0120incident": 10142, "Att": 10143, "\u0120revealed": 10144, "forc": 10145, "\u0120boot": 10146, ".page": 10147, "Enumerator": 10148, "_->": 10149, "Photo": 10150, "\u0120spring": 10151, ".\",": 10152, "\u0120Dictionary": 10153, "BJECT": 10154, "\u0120locations": 10155, "\u0120samples": 10156, "InputStream": 10157, "\u0120Brown": 10158, "\u0120stats": 10159, "quality": 10160, "\u00d1\u0127": 10161, "-dis": 10162, "\u0120helping": 10163, "\u0120ped": 10164, "(se": 10165, "\u0120Who": 10166, "alian": 10167, "internal": 10168, "\u0120ft": 10169, ">().": 10170, "->{": 10171, "\u0120mine": 10172, "\u0120sector": 10173, "\u0120gro": 10174, "\u0120opportunities": 10175, "\u0120\u00c3\u00bc": 10176, "\u0120mp": 10177, "\u0120alleged": 10178, "\u0120doubt": 10179, "Mouse": 10180, "About": 10181, "_part": 10182, "\u0120chair": 10183, "\u0120stopped": 10184, "loop": 10185, "entities": 10186, "\u0120apps": 10187, "ansion": 10188, "\u0120mental": 10189, "\u0120\u0120\u0120\u0120\u0120\u0120\u0120\u0120\u0120\u0120\u0120\u0120\u0120\u0120\u0120\u0120\u0120\u0120\u0120\u0120\u0120\u0120\u0120\u0120\u0120\u0120\u0120\u0120\u0120\u0120\u0120\u0120\u0120\u0120\u0120\u0120\u0120\u0120\u0120\u0120\u0120": 10190, "FR": 10191, "\u0120defend": 10192, "care": 10193, "\u0120ideal": 10194, "/api": 10195, "urface": 10196, "\u0120ele": 10197, "ulator": 10198, "\u0120Rights": 10199, "anguages": 10200, "\u0120funds": 10201, "\u0120adapt": 10202, "Attributes": 10203, "\u0120deploy": 10204, "opts": 10205, "\u0120validation": 10206, "\u0120concerns": 10207, "uce": 10208, ".num": 10209, "ulture": 10210, "ila": 10211, "\u0120cup": 10212, "\u0120pure": 10213, ".Fore": 10214, "\u0120HashMap": 10215, ".valueOf": 10216, "asm": 10217, "MO": 10218, "\u0120cs": 10219, "\u0120stores": 10220, "\u0120************************************************************************": 10221, "\u0120communication": 10222, "mem": 10223, ".EventHandler": 10224, ".Status": 10225, "_right": 10226, ".setOn": 10227, "Sheet": 10228, "\u0120identify": 10229, "enerated": 10230, "ordered": 10231, "\u0120\"[": 10232, "\u0120swe": 10233, "Condition": 10234, "\u0120According": 10235, "\u0120prepare": 10236, "\u0120rob": 10237, "Pool": 10238, "\u0120sport": 10239, "rv": 10240, "\u0120Router": 10241, "\u0120alternative": 10242, "([]": 10243, "\u0120Chicago": 10244, "ipher": 10245, "ische": 10246, "\u0120Director": 10247, "kl": 10248, "\u0120Wil": 10249, "keys": 10250, "\u0120mysql": 10251, "\u0120welcome": 10252, "king": 10253, "\u0120Manager": 10254, "\u0120caught": 10255, "Score": 10256, "_PR": 10257, "\u0120survey": 10258, "hab": 10259, "Headers": 10260, "ADER": 10261, "\u0120decor": 10262, "\u0120turns": 10263, "\u0120radius": 10264, "errupt": 10265, "Cor": 10266, "\u0120mel": 10267, "\u0120intr": 10268, "(q": 10269, "\u0120AC": 10270, "amos": 10271, "MAX": 10272, "\u0120Grid": 10273, "\u0120Jesus": 10274, "\u0120\u0120\u0120\u0120\u0120\u0120\u0120\u0120\u0120\u0120\u0120\u0120\u0120\u0120\u0120\u0120\u0120\u0120\u0120\u0120\u0120\u0120\u0120\u0120\u0120\u0120\u0120\u0120\u0120\u0120\u0120\u0120\u0120\u0120\u0120\u0120": 10275, ".DE": 10276, "\u0120ts": 10277, "\u0120linked": 10278, "free": 10279, "\u0120Qt": 10280, "\u0120faster": 10281, "ctr": 10282, "_J": 10283, "DT": 10284, ".Check": 10285, "\u0120combination": 10286, "\u0120intended": 10287, "-the": 10288, "-type": 10289, "ectors": 10290, "ami": 10291, "uting": 10292, "\u0120uma": 10293, "XML": 10294, "UCT": 10295, "Ap": 10296, "\u0120Random": 10297, "\u0120ran": 10298, ".sort": 10299, "\u0120sorted": 10300, ".Un": 10301, "_PER": 10302, "itory": 10303, "\u0120priority": 10304, "\u0120Gal": 10305, "\u0120Old": 10306, "hot": 10307, "\u0120Display": 10308, "(sub": 10309, "_TH": 10310, "_Y": 10311, "\u0120Care": 10312, "loading": 10313, "Kind": 10314, "_handle": 10315, ",,": 10316, "rase": 10317, "_replace": 10318, ".addEventListener": 10319, "\u0120RT": 10320, "\u0120entered": 10321, "gers": 10322, "\u0120ich": 10323, "(start": 10324, "/app": 10325, "\u0120brother": 10326, "Memory": 10327, "Outlet": 10328, "\u0120utf": 10329, "prec": 10330, "\u0120navigation": 10331, "ORK": 10332, "\u0120dst": 10333, "Detail": 10334, "\u0120audience": 10335, "\u0120dur": 10336, "\u0120cluster": 10337, "unched": 10338, "\u0120],": 10339, "\u0120comfortable": 10340, ".values": 10341, "\u0120Total": 10342, "\u0120snap": 10343, "\u0120standards": 10344, "\u0120performed": 10345, "hand": 10346, "(\"@": 10347, "\u0120phil": 10348, "ibr": 10349, "trim": 10350, "\u0120forget": 10351, "\u0120doctor": 10352, ".TextBox": 10353, "icons": 10354, ",s": 10355, "\u0120Op": 10356, "Sm": 10357, "Stop": 10358, "\u0109List": 10359, "\u0109u": 10360, "Comment": 10361, "_VERSION": 10362, ".Xtra": 10363, "Person": 10364, "rb": 10365, "LOB": 10366, "\u0120\u0120\u0120\u0120\u0120\u0120\u0120\u0120\u0120\u0120\u0120\u0120\u0120\u0120\u0120\u0120\u0120\u0120\u0120\u0120\u010a": 10367, "\u0120Central": 10368, "ICK": 10369, "raq": 10370, "\u0120putting": 10371, "\u0120md": 10372, "\u0120Love": 10373, "Program": 10374, "Border": 10375, "oor": 10376, "\u0120allowing": 10377, "after": 10378, "\u0120entries": 10379, "\u0120Maybe": 10380, "]).": 10381, "\u0120Short": 10382, ")\\": 10383, ".now": 10384, "friend": 10385, "\u0120prefer": 10386, "\u0120GPIO": 10387, "osis": 10388, "\u0120GameObject": 10389, "\u0120skip": 10390, "\u0120competition": 10391, "_match": 10392, "lications": 10393, "_CONT": 10394, ".groupBox": 10395, "\u0120als": 10396, "\"We": 10397, "_eq": 10398, "lan": 10399, "_search": 10400, "\u0120Music": 10401, "asis": 10402, "\u0120bind": 10403, "\u0120Island": 10404, "rum": 10405, "(E": 10406, "\u0120seat": 10407, "Video": 10408, "\u0120ack": 10409, "reek": 10410, "={()": 10411, "\u0120rating": 10412, "\u0120restaurant": 10413, "DEX": 10414, "(buf": 10415, "pping": 10416, "uality": 10417, "\u0120league": 10418, "\u0120focused": 10419, "apon": 10420, "$data": 10421, "CLUD": 10422, "CLUDING": 10423, "\u0120absolute": 10424, "(query": 10425, "\u0120tells": 10426, "Ang": 10427, "\u0120communities": 10428, "\u0120honest": 10429, "oking": 10430, "\u0120apart": 10431, "arity": 10432, "/$": 10433, "_module": 10434, "\u0120Enc": 10435, ".an": 10436, ".Config": 10437, "Cre": 10438, "\u0120shock": 10439, "\u0120Arab": 10440, "IENT": 10441, "/re": 10442, "\u0120retrie": 10443, "ycler": 10444, "isa": 10445, "\u0120Organ": 10446, ".graph": 10447, "\u0120\u00ed": 10448, "\u0120BAS": 10449, "Enum": 10450, "\u0120possibly": 10451, "\u0120Japanese": 10452, "\u0120craft": 10453, "\u0120Place": 10454, "\u0120talent": 10455, "\u0120funding": 10456, "\u0120confirmed": 10457, "\u0120cycle": 10458, "/x": 10459, "GE": 10460, "\u0120hearing": 10461, "\u0120plants": 10462, "\u0120mouth": 10463, "pages": 10464, "oria": 10465, "\u0120Remove": 10466, "_total": 10467, "\u0120od": 10468, "ollapse": 10469, "door": 10470, "\u0120bought": 10471, "\u0120addr": 10472, "ARCH": 10473, "_dim": 10474, "dden": 10475, "\u0120decades": 10476, "REQUEST": 10477, "\u0120versions": 10478, "fire": 10479, "\u0120moves": 10480, "fb": 10481, "\u0120coffee": 10482, ".connect": 10483, "\u0120Row": 10484, "\u0120schema": 10485, "Scope": 10486, "-Type": 10487, "\u0120fighting": 10488, "\u0120retail": 10489, "\u0120modified": 10490, "TF": 10491, "Files": 10492, "nie": 10493, "_command": 10494, "stone": 10495, "\u0120\u00d1\u0124": 10496, "_thread": 10497, "\u0120bond": 10498, "\u0120Development": 10499, "\u0120pt": 10500, "FORM": 10501, "plet": 10502, "\u0120identified": 10503, "cpp": 10504, "\u0120coding": 10505, "oked": 10506, "\u0120Master": 10507, "IDTH": 10508, "\u0120residents": 10509, "redit": 10510, "\u0120Photo": 10511, "=-": 10512, "unte": 10513, "ateur": 10514, "_STATE": 10515, "\u0120Sing": 10516, "\u0120sheet": 10517, ".val": 10518, "orse": 10519, "\u0120hers": 10520, "\u0120determined": 10521, "Common": 10522, "\u0120wed": 10523, "_queue": 10524, "PH": 10525, "\u0120Atl": 10526, "cred": 10527, "/LICENSE": 10528, "\u0120mes": 10529, "\u0120advanced": 10530, ".java": 10531, ".Sh": 10532, "Go": 10533, "kill": 10534, "fp": 10535, "_settings": 10536, "\u0120pal": 10537, "\u0120truck": 10538, "\u0120combined": 10539, "\u0120\"${": 10540, "\u0120Corpor": 10541, "\u0120joined": 10542, "\u0120Jose": 10543, "\u0120Cup": 10544, "uns": 10545, "estival": 10546, "levision": 10547, "\u0120broken": 10548, "\u0120marriage": 10549, "\u0120Western": 10550, "\u0120represents": 10551, "\u0120Title": 10552, "\u0120ss": 10553, ".Ass": 10554, "ongoose": 10555, "iento": 10556, "\u0120absolutely": 10557, "\u0120smooth": 10558, "TERN": 10559, "\u0120Unless": 10560, "Word": 10561, "\u0120merge": 10562, "igan": 10563, "\u0120Vol": 10564, "\u0120nn": 10565, ".getId": 10566, "\u0120\u00d0\u00b7": 10567, "\u0120sexy": 10568, "\u0120seeking": 10569, "Single": 10570, ".this": 10571, "\u0120kom": 10572, "bound": 10573, ";\"": 10574, "\u0120fontSize": 10575, "_df": 10576, "\u0120injury": 10577, "(H": 10578, "\u0120issued": 10579, "_END": 10580, ":self": 10581, "\u0120patch": 10582, "\u0120leaves": 10583, "\u0120adopt": 10584, "FileName": 10585, "\u00e3\u0122\u0132": 10586, "\u0120executive": 10587, "\u0120Byte": 10588, "\u0120nu": 10589, "outing": 10590, "cluding": 10591, "-R": 10592, ".options": 10593, "\u0120substant": 10594, "avax": 10595, "\u0120BUT": 10596, "\u0120technical": 10597, "\u0120twice": 10598, "\u0120m\u00c3\u00a1s": 10599, "\u0120univers": 10600, "yr": 10601, "\u0120drag": 10602, "\u0120DC": 10603, "\u0120sed": 10604, "\u0120bot": 10605, "\u0120Pal": 10606, "\u0120Hall": 10607, "forcement": 10608, "\u0120auch": 10609, ".mod": 10610, "notation": 10611, "_files": 10612, ".line": 10613, "_flag": 10614, "[name": 10615, "\u0120resolution": 10616, "\u0120bott": 10617, "(\"[": 10618, "ende": 10619, "(arr": 10620, "Free": 10621, "(@\"": 10622, "\u0120District": 10623, "PEC": 10624, ":-": 10625, "Picker": 10626, "\u0120Jo": 10627, "\u0120\u0120\u0120\u0120\u0120\u010a": 10628, "\u0120River": 10629, "_rows": 10630, "\u0120helpful": 10631, "\u0120massive": 10632, "\u0120measures": 10633, "\u0120Runtime": 10634, "\u0120worry": 10635, "\u0120Spec": 10636, "\u0109D": 10637, "\u00e3\u0122\u0133": 10638, "\u0120worse": 10639, "(filename": 10640, "\u0120lay": 10641, "\u0120magic": 10642, "\u0120Their": 10643, "oul": 10644, "stroy": 10645, "\u0120Where": 10646, "\u0120sudden": 10647, "\u0120defe": 10648, "\u0120binding": 10649, "\u0120flight": 10650, "\u0120OnInit": 10651, "\u0120Women": 10652, "\u0120Policy": 10653, "\u0120drugs": 10654, "ishing": 10655, "('../": 10656, "\u0120Mel": 10657, "peat": 10658, "tor": 10659, "\u0120proposed": 10660, "\u0120stated": 10661, "_RES": 10662, "\u0120east": 10663, "\u0120CONDITION": 10664, "_desc": 10665, "\u0120winning": 10666, "folio": 10667, "Mapper": 10668, "\u0120Pan": 10669, "\u0120Ange": 10670, ".servlet": 10671, "\u0120copies": 10672, "LM": 10673, "\u0120vm": 10674, "\u0120dictionary": 10675, "Seg": 10676, "elines": 10677, "\u0120Send": 10678, "\u0120iron": 10679, "\u0120Fort": 10680, ".domain": 10681, "\u0120debate": 10682, "NotNull": 10683, "eq": 10684, "acher": 10685, "lf": 10686, "\u0109fmt": 10687, "\u0120lawy": 10688, "\u00c4\u0141": 10689, "\u0120Men": 10690, "\u0120trim": 10691, "(NULL": 10692, "\u0120!!": 10693, "\u0120pad": 10694, "\u0120follows": 10695, "\"][\"": 10696, "requ": 10697, "\u0120Ep": 10698, ".github": 10699, "(img": 10700, "eto": 10701, "('\\": 10702, "Services": 10703, "umbnail": 10704, "_main": 10705, "pleted": 10706, "fortunately": 10707, "\u0120windows": 10708, "\u0120plane": 10709, "\u0120Connection": 10710, ".local": 10711, "uard": 10712, "}\\": 10713, "==\"": 10714, "andon": 10715, "\u0120Roy": 10716, "west": 10717, "iginal": 10718, "emies": 10719, "itz": 10720, "\u0120Peter": 10721, "\u0120tough": 10722, "\u0120reduced": 10723, "\u0120calculate": 10724, "\u0120rapid": 10725, "customer": 10726, "\u0120efficient": 10727, "\u0120medium": 10728, "\u0120fell": 10729, ".ref": 10730, "\u0120Cas": 10731, "\u0120feedback": 10732, "Speed": 10733, "(output": 10734, "aje": 10735, "\u0120categories": 10736, "\u0120fee": 10737, "};": 10738, "\u0120deleted": 10739, "reh": 10740, "\u0120proof": 10741, "Desc": 10742, "Build": 10743, "\u0120sides": 10744, ".ArrayList": 10745, "-%": 10746, "\u0120\u0120\u0120\u0120\u0120\u0120\u0120\u0120\u0120\u0120\u0120\u0120\u0120\u0120\u0120\u0120\u0120\u0120\u0120\u0120\u0120\u0120\u0120\u0120\u0120\u0120\u0120\u0120\u0120\u0120\u0120\u0120\u0120\u0120\u0120\u0120\u0120\u0120": 10747, "\u00d8\u00b1": 10748, ".match": 10749, "\u00d0\u00bb\u00d0\u00b8": 10750, "\u0120feels": 10751, "\u0120achieve": 10752, "\u0120clim": 10753, "_ON": 10754, "\u0120CD": 10755, "\u0120teacher": 10756, "_current": 10757, "bn": 10758, "_PL": 10759, "isting": 10760, "Enable": 10761, "GEN": 10762, "\u0120tv": 10763, "\u0120sock": 10764, "\u0120plays": 10765, "\u0120discount": 10766, "\u0120KE": 10767, "\u0120Debug": 10768, "Fore": 10769, "\u0120Iraq": 10770, "\u0120appearance": 10771, "Mon": 10772, "\u0120styled": 10773, "\u0120Human": 10774, "iot": 10775, "\u0120History": 10776, "\u0120sac": 10777, "\u0120Collection": 10778, "\u0120recommended": 10779, ".Selected": 10780, "\u0120organizations": 10781, "\u0120discovered": 10782, "cohol": 10783, "adas": 10784, "\u0120Thomas": 10785, "May": 10786, "\u0120conserv": 10787, "\u0120domin": 10788, "\u0120Follow": 10789, "\u0120Section": 10790, "\u0120Thanks": 10791, "Username": 10792, "\u0120recipe": 10793, "\u0120wonderful": 10794, ".sleep": 10795, "_if": 10796, "\u0109\u010a\u0109\u010a": 10797, "orno": 10798, "\u0120ru": 10799, "_target": 10800, ".\"\"": 10801, "\u00e0\u00a6": 10802, "EventArgs": 10803, "\u0120inputs": 10804, "\u0120fif": 10805, "\u0120vision": 10806, "cy": 10807, "\u0120Series": 10808, ")(((": 10809,
[...]
